{
  "version": "1.0",
  "truncation": null,
  "padding": null,
  "added_tokens": [
    {
      "id": 0,
      "content": "[PAD]",
      "single_word": false,
      "lstrip": false,
      "rstrip": false,
      "normalized": false,
      "special": true
    },
    {
      "id": 1,
      "content": "[UNK]",
      "single_word": false,
      "lstrip": false,
      "rstrip": false,
      "normalized": false,
      "special": true
    },
    {
      "id": 2,
      "content": "[CLS]",
      "single_word": false,
      "lstrip": false,
      "rstrip": false,
      "normalized": false,
      "special": true
    },
    {
      "id": 3,
      "content": "[SEP]",
      "single_word": false,
      "lstrip": false,
      "rstrip": false,
      "normalized": false,
      "special": true
    }
  ],
  "normalizer": null,
  "pre_tokenizer": {
    "type": "Whitespace"
  },
  "post_processor": null,
  "decoder": null,
  "model": {
    "type": "BPE",
    "dropout": null,
    "unk_token": "[UNK]",
    "continuing_subword_prefix": null,
    "end_of_word_suffix": null,
    "fuse_unk": false,
    "byte_fallback": false,
    "ignore_merges": false,
    "vocab": {
      "[PAD]": 0,
      "[UNK]": 1,
      "[CLS]": 2,
      "[SEP]": 3,
      "!": 4,
      "\"": 5,
      "#": 6,
      "$": 7,
      "%": 8,
      "&": 9,
      "'": 10,
      "(": 11,
      ")": 12,
      "*": 13,
      "+": 14,
      ",": 15,
      "-": 16,
      ".": 17,
      "/": 18,
      "0": 19,
      "1": 20,
      "2": 21,
      "3": 22,
      "4": 23,
      "5": 24,
      "6": 25,
      "7": 26,
      "8": 27,
      "9": 28,
      ":": 29,
      ";": 30,
      "<": 31,
      "=": 32,
      ">": 33,
      "?": 34,
      "@": 35,
      "A": 36,
      "B": 37,
      "C": 38,
      "D": 39,
      "E": 40,
      "F": 41,
      "G": 42,
      "H": 43,
      "I": 44,
      "J": 45,
      "K": 46,
      "L": 47,
      "M": 48,
      "N": 49,
      "O": 50,
      "P": 51,
      "Q": 52,
      "R": 53,
      "S": 54,
      "T": 55,
      "U": 56,
      "V": 57,
      "W": 58,
      "X": 59,
      "Y": 60,
      "Z": 61,
      "[": 62,
      "\\": 63,
      "]": 64,
      "^": 65,
      "_": 66,
      "`": 67,
      "a": 68,
      "b": 69,
      "c": 70,
      "d": 71,
      "e": 72,
      "f": 73,
      "g": 74,
      "h": 75,
      "i": 76,
      "j": 77,
      "k": 78,
      "l": 79,
      "m": 80,
      "n": 81,
      "o": 82,
      "p": 83,
      "q": 84,
      "r": 85,
      "s": 86,
      "t": 87,
      "u": 88,
      "v": 89,
      "w": 90,
      "x": 91,
      "y": 92,
      "z": 93,
      "{": 94,
      "|": 95,
      "}": 96,
      "~": 97,
      "in": 98,
      "th": 99,
      "er": 100,
      "an": 101,
      "..": 102,
      "on": 103,
      "ou": 104,
      "re": 105,
      "at": 106,
      "st": 107,
      "??": 108,
      "ing": 109,
      "or": 110,
      "en": 111,
      "to": 112,
      "it": 113,
      "the": 114,
      "ll": 115,
      "is": 116,
      "ar": 117,
      "es": 118,
      "me": 119,
      "ow": 120,
      "ed": 121,
      "et": 122,
      "he": 123,
      "lo": 124,
      "as": 125,
      "ay": 126,
      "and": 127,
      "ic": 128,
      "al": 129,
      "you": 130,
      "oo": 131,
      "le": 132,
      "ve": 133,
      "...": 134,
      "of": 135,
      "ch": 136,
      "ad": 137,
      "????": 138,
      "ro": 139,
      "ti": 140,
      "for": 141,
      "id": 142,
      "be": 143,
      "ha": 144,
      "ew": 145,
      "ac": 146,
      "se": 147,
      "li": 148,
      "un": 149,
      "ot": 150,
      "am": 151,
      "ig": 152,
      "ke": 153,
      "all": 154,
      "so": 155,
      "we": 156,
      "ver": 157,
      "il": 158,
      "wh": 159,
      "The": 160,
      "ut": 161,
      "ur": 162,
      "om": 163,
      "that": 164,
      "my": 165,
      "nd": 166,
      "ent": 167,
      "wi": 168,
      "ma": 169,
      "ion": 170,
      "sh": 171,
      "out": 172,
      "ol": 173,
      "ter": 174,
      "are": 175,
      "el": 176,
      "ere": 177,
      "pl": 178,
      "ra": 179,
      "ood": 180,
      "!!": 181,
      "New": 182,
      "get": 183,
      "ht": 184,
      "up": 185,
      "one": 186,
      "ir": 187,
      "ri": 188,
      "ab": 189,
      "us": 190,
      "lol": 191,
      "ly": 192,
      "mo": 193,
      "now": 194,
      "ne": 195,
      "est": 196,
      "ers": 197,
      "with": 198,
      "ag": 199,
      "do": 200,
      "ho": 201,
      "ust": 202,
      "pe": 203,
      "ast": 204,
      "ld": 205,
      "im": 206,
      "te": 207,
      "po": 208,
      "????????": 209,
      "day": 210,
      "ks": 211,
      "ound": 212,
      "Th": 213,
      "ight": 214,
      "ce": 215,
      "log": 216,
      "was": 217,
      "rom": 218,
      "tion": 219,
      "ill": 220,
      "have": 221,
      "this": 222,
      "oll": 223,
      "On": 224,
      "no": 225,
      "ea": 226,
      "ant": 227,
      "if": 228,
      "like": 229,
      "not": 230,
      "time": 231,
      "from": 232,
      "ree": 233,
      "end": 234,
      "ess": 235,
      "but": 236,
      "art": 237,
      "nt": 238,
      "go": 239,
      "com": 240,
      "de": 241,
      "king": 242,
      "op": 243,
      "um": 244,
      "your": 245,
      "ta": 246,
      "ind": 247,
      "ard": 248,
      "ack": 249,
      "ine": 250,
      "new": 251,
      "ould": 252,
      "wor": 253,
      "ap": 254,
      "ry": 255,
      "ck": 256,
      "our": 257,
      "ul": 258,
      "ity": 259,
      "fe": 260,
      "Ch": 261,
      "con": 262,
      "ss": 263,
      "Wh": 264,
      "ation": 265,
      "co": 266,
      "some": 267,
      "can": 268,
      "tu": 269,
      "ate": 270,
      "RE": 271,
      "ep": 272,
      "br": 273,
      "just": 274,
      "In": 275,
      "play": 276,
      "bound": 277,
      "ther": 278,
      "what": 279,
      "bo": 280,
      "blog": 281,
      "ff": 282,
      "pro": 283,
      "ct": 284,
      "post": 285,
      "10": 286,
      "ays": 287,
      "ain": 288,
      "ong": 289,
      "na": 290,
      "thing": 291,
      "ide": 292,
      "ally": 293,
      "tra": 294,
      "ink": 295,
      "ia": 296,
      "mail": 297,
      "man": 298,
      "ix": 299,
      "bet": 300,
      "its": 301,
      "Re": 302,
      "ie": 303,
      "ice": 304,
      "au": 305,
      "aw": 306,
      "good": 307,
      "News": 308,
      "ction": 309,
      "don": 310,
      "know": 311,
      "ue": 312,
      "ear": 313,
      "there": 314,
      "....": 315,
      "own": 316,
      "ex": 317,
      "about": 318,
      "ass": 319,
      "ive": 320,
      "very": 321,
      "got": 322,
      "We": 323,
      "ge": 324,
      "pr": 325,
      "It": 326,
      "ist": 327,
      "ire": 328,
      "too": 329,
      "20": 330,
      "iss": 331,
      "CA": 332,
      "wit": 333,
      "how": 334,
      "gh": 335,
      "act": 336,
      "You": 337,
      "IN": 338,
      "He": 339,
      "they": 340,
      "ark": 341,
      "ment": 342,
      "ies": 343,
      "pp": 344,
      "email": 345,
      "Now": 346,
      "ure": 347,
      "wood": 348,
      "gets": 349,
      "To": 350,
      "by": 351,
      "cl": 352,
      "playing": 353,
      "TH": 354,
      "atch": 355,
      "aa": 356,
      "tr": 357,
      ":)": 358,
      "Pho": 359,
      "ool": 360,
      "une": 361,
      "pre": 362,
      "sa": 363,
      "than": 364,
      "ite": 365,
      "loo": 366,
      "off": 367,
      "need": 368,
      "her": 369,
      "ci": 370,
      "VE": 371,
      "ick": 372,
      "news": 373,
      "Con": 374,
      "see": 375,
      "tech": 376,
      "Holl": 377,
      "more": 378,
      "per": 379,
      "ywood": 380,
      "age": 381,
      "ele": 382,
      "reat": 383,
      "nan": 384,
      "enix": 385,
      "Phoenix": 386,
      "Hollywood": 387,
      "):": 388,
      "LO": 389,
      "qu": 390,
      "ollow": 391,
      "St": 392,
      "Tune": 393,
      "did": 394,
      "ore": 395,
      "ps": 396,
      "ud": 397,
      "any": 398,
      "jun": 399,
      "think": 400,
      "gad": 401,
      "ort": 402,
      "nanj": 403,
      "--": 404,
      "gr": 405,
      "clo": 406,
      "thbound": 407,
      "gadgets": 408,
      "bl": 409,
      "ween": 410,
      "junction": 411,
      "ish": 412,
      "ower": 413,
      "old": 414,
      "line": 415,
      "cur": 416,
      "she": 417,
      "ous": 418,
      "haha": 419,
      "weet": 420,
      "free": 421,
      "love": 422,
      "between": 423,
      "back": 424,
      "And": 425,
      "sp": 426,
      "ven": 427,
      "sm": 428,
      "over": 429,
      "ak": 430,
      "nanjnews": 431,
      "&#": 432,
      "sc": 433,
      "ting": 434,
      "want": 435,
      "them": 436,
      "when": 437,
      "So": 438,
      "emailing": 439,
      "ON": 440,
      "miss": 441,
      "00": 442,
      "ving": 443,
      "oh": 444,
      "yea": 445,
      "follow": 446,
      "io": 447,
      "iz": 448,
      "ES": 449,
      "RA": 450,
      "ail": 451,
      "Cele": 452,
      "Free": 453,
      "Lo": 454,
      "Celebr": 455,
      "ber": 456,
      "youtu": 457,
      "arket": 458,
      "junctions": 459,
      "youtube": 460,
      "ning": 461,
      "right": 462,
      "Be": 463,
      "Lat": 464,
      "say": 465,
      "ty": 466,
      "vel": 467,
      "For": 468,
      "down": 469,
      "ans": 470,
      "start": 471,
      "will": 472,
      "witter": 473,
      "39": 474,
      "lu": 475,
      "ase": 476,
      "av": 477,
      "dy": 478,
      "ght": 479,
      "ile": 480,
      "way": 481,
      "How": 482,
      "TV": 483,
      "What": 484,
      "ts": 485,
      "read": 486,
      "Po": 487,
      "af": 488,
      "der": 489,
      "ffic": 490,
      "Celebrity": 491,
      "AN": 492,
      "AP": 493,
      "gu": 494,
      "has": 495,
      "mer": 496,
      "uch": 497,
      "Latest": 498,
      "gy": 499,
      "min": 500,
      "who": 501,
      "had": 502,
      "ms": 503,
      "12": 504,
      "OU": 505,
      "ame": 506,
      "che": 507,
      "ee": 508,
      "ph": 509,
      "irl": 510,
      "ideo": 511,
      "An": 512,
      "Do": 513,
      "My": 514,
      "lma": 515,
      "tool": 516,
      "ian": 517,
      "tal": 518,
      "ger": 519,
      "other": 520,
      "would": 521,
      "del": 522,
      "ob": 523,
      "ise": 524,
      "oooo": 525,
      "Wi": 526,
      "ner": 527,
      "ough": 528,
      "rent": 529,
      "every": 530,
      "here": 531,
      "ace": 532,
      "AT": 533,
      "xt": 534,
      "!!!": 535,
      "cou": 536,
      "ple": 537,
      "tweet": 538,
      "Man": 539,
      "today": 540,
      "been": 541,
      "Pro": 542,
      "last": 543,
      "well": 544,
      "come": 545,
      "lmao": 546,
      "Is": 547,
      "TO": 548,
      "ser": 549,
      "ild": 550,
      "able": 551,
      "????????????????": 552,
      "mm": 553,
      "watch": 554,
      "ash": 555,
      "ook": 556,
      "work": 557,
      "pic": 558,
      "su": 559,
      "Com": 560,
      "fu": 561,
      "still": 562,
      "hel": 563,
      "Blog": 564,
      "IT": 565,
      "where": 566,
      "US": 567,
      "ek": 568,
      "tw": 569,
      "riend": 570,
      "That": 571,
      "REE": 572,
      "THE": 573,
      "No": 574,
      "spe": 575,
      "going": 576,
      "put": 577,
      "sed": 578,
      "really": 579,
      "???": 580,
      "ople": 581,
      "IS": 582,
      "cu": 583,
      "gon": 584,
      "him": 585,
      "much": 586,
      "vi": 587,
      "make": 588,
      "De": 589,
      "Nor": 590,
      "Se": 591,
      "cre": 592,
      "ton": 593,
      "year": 594,
      "ang": 595,
      "home": 596,
      "This": 597,
      "feel": 598,
      "traffic": 599,
      "look": 600,
      "current": 601,
      "girl": 602,
      "rid": 603,
      "only": 604,
      "OO": 605,
      "bout": 606,
      "land": 607,
      "vy": 608,
      "ance": 609,
      "arketing": 610,
      "MA": 611,
      "bu": 612,
      "his": 613,
      "row": 614,
      "ways": 615,
      "ys": 616,
      "ress": 617,
      "att": 618,
      "Than": 619,
      "ID": 620,
      "Sou": 621,
      "power": 622,
      "then": 623,
      "FREE": 624,
      "LE": 625,
      "Wor": 626,
      "ave": 627,
      "des": 628,
      "port": 629,
      "ves": 630,
      "ama": 631,
      "said": 632,
      "Bo": 633,
      "Ma": 634,
      "Med": 635,
      "fun": 636,
      "iness": 637,
      "mission": 638,
      "currently": 639,
      "11": 640,
      "ME": 641,
      "cau": 642,
      "du": 643,
      "friend": 644,
      "ome": 645,
      "ener": 646,
      "ident": 647,
      "people": 648,
      "were": 649,
      "irst": 650,
      "cial": 651,
      "Conver": 652,
      "Al": 653,
      "Hea": 654,
      "could": 655,
      "em": 656,
      "lar": 657,
      "pm": 658,
      "tho": 659,
      "chool": 660,
      "travel": 661,
      "Heavy": 662,
      "TRA": 663,
      "ble": 664,
      "show": 665,
      "usiness": 666,
      "most": 667,
      "take": 668,
      "help": 669,
      "kes": 670,
      "yeah": 671,
      "Ex": 672,
      "Get": 673,
      "Sh": 674,
      "big": 675,
      "mor": 676,
      "night": 677,
      "inter": 678,
      "real": 679,
      "why": 680,
      "closed": 681,
      "Ar": 682,
      "Ind": 683,
      "air": 684,
      "try": 685,
      "ade": 686,
      "shit": 687,
      "Post": 688,
      "after": 689,
      "BC": 690,
      "Sol": 691,
      "cc": 692,
      "mon": 693,
      "ouse": 694,
      "ater": 695,
      "Can": 696,
      "let": 697,
      "ru": 698,
      "ya": 699,
      "ens": 700,
      "ary": 701,
      "30": 702,
      "use": 703,
      "video": 704,
      "ze": 705,
      "int": 706,
      "ated": 707,
      "pract": 708,
      "VEL": 709,
      "?!": 710,
      "LL": 711,
      "ds": 712,
      "thats": 713,
      "again": 714,
      "dont": 715,
      "cause": 716,
      "TRAVEL": 717,
      "25": 718,
      "Marketing": 719,
      "call": 720,
      "ful": 721,
      "ok": 722,
      "online": 723,
      "ason": 724,
      "moking": 725,
      "tell": 726,
      "permission": 727,
      "Gu": 728,
      "M6": 729,
      "Or": 730,
      "cor": 731,
      "hh": 732,
      "send": 733,
      "wan": 734,
      "ats": 735,
      "ating": 736,
      "top": 737,
      "sel": 738,
      "igh": 739,
      "week": 740,
      "!!!!": 741,
      "Media": 742,
      "EE": 743,
      "Un": 744,
      "West": 745,
      "ey": 746,
      "iro": 747,
      "net": 748,
      "ence": 749,
      "happ": 750,
      "shire": 751,
      "rist": 752,
      "thanks": 753,
      "Love": 754,
      "Good": 755,
      "Ph": 756,
      "YOU": 757,
      "lan": 758,
      "long": 759,
      "os": 760,
      "part": 761,
      "twitter": 762,
      "wind": 763,
      "should": 764,
      "LOL": 765,
      "Me": 766,
      "NO": 767,
      "fore": 768,
      "adio": 769,
      "iropract": 770,
      "09": 771,
      "ER": 772,
      "ny": 773,
      "ins": 774,
      "reen": 775,
      "ich": 776,
      "form": 777,
      "never": 778,
      "cuz": 779,
      "Bl": 780,
      "DV": 781,
      "Mon": 782,
      "Of": 783,
      "di": 784,
      "may": 785,
      "ppl": 786,
      "ran": 787,
      "song": 788,
      "tur": 789,
      "wa": 790,
      "won": 791,
      "itt": 792,
      "lie": 793,
      "ign": 794,
      "delays": 795,
      "DVD": 796,
      "Sur": 797,
      "bs": 798,
      "fer": 799,
      "les": 800,
      "sure": 801,
      "ital": 802,
      "always": 803,
      "list": 804,
      "ily": 805,
      "does": 806,
      "Solar": 807,
      "self": 808,
      "But": 809,
      "Just": 810,
      "Mo": 811,
      "Wind": 812,
      "Your": 813,
      "bad": 814,
      "ever": 815,
      "hu": 816,
      "school": 817,
      "tin": 818,
      "res": 819,
      "ory": 820,
      "better": 821,
      "ING": 822,
      "AY": 823,
      "Br": 824,
      "Qu": 825,
      "bit": 826,
      "dis": 827,
      "fr": 828,
      "ann": 829,
      "head": 830,
      "uper": 831,
      "Ad": 832,
      "Smoking": 833,
      "Ti": 834,
      "bab": 835,
      "dit": 836,
      "jus": 837,
      "kill": 838,
      "nor": 839,
      "thin": 840,
      "med": 841,
      "sex": 842,
      "life": 843,
      "started": 844,
      "Go": 845,
      "cle": 846,
      "dr": 847,
      "fam": 848,
      "first": 849,
      "pu": 850,
      "ward": 851,
      "tim": 852,
      "app": 853,
      "With": 854,
      "15": 855,
      "AS": 856,
      "Im": 857,
      "RO": 858,
      "Te": 859,
      "ach": 860,
      "fa": 861,
      "ike": 862,
      "sum": 863,
      "alth": 864,
      "road": 865,
      "body": 866,
      "----": 867,
      "talk": 868,
      "Thanks": 869,
      "wanna": 870,
      "?:": 871,
      "All": 872,
      "Twitter": 873,
      "da": 874,
      "ster": 875,
      "ors": 876,
      "iso": 877,
      "keep": 878,
      "used": 879,
      "next": 880,
      "ready": 881,
      "gery": 882,
      "iropractic": 883,
      "16": 884,
      "CK": 885,
      "En": 886,
      "Ro": 887,
      "car": 888,
      "even": 889,
      "gan": 890,
      "sle": 891,
      "??????": 892,
      "ely": 893,
      "oney": 894,
      "Converter": 895,
      "As": 896,
      "Are": 897,
      "BBC": 898,
      "If": 899,
      "NE": 900,
      "Sp": 901,
      "Sun": 902,
      "bas": 903,
      "cool": 904,
      "fin": 905,
      "give": 906,
      "hi": 907,
      "jo": 908,
      "la": 909,
      "ina": 910,
      "anc": 911,
      "atur": 912,
      "igg": 913,
      "solar": 914,
      "ents": 915,
      "gonna": 916,
      "view": 917,
      "MP": 918,
      "Radio": 919,
      "cr": 920,
      "great": 921,
      "ought": 922,
      "ates": 923,
      "stop": 924,
      "ical": 925,
      "doing": 926,
      "ations": 927,
      "energy": 928,
      "OR": 929,
      "Pr": 930,
      "ball": 931,
      "hand": 932,
      "ious": 933,
      "might": 934,
      "wr": 935,
      "zy": 936,
      "rest": 937,
      "ream": 938,
      "live": 939,
      "vers": 940,
      "world": 941,
      "smh": 942,
      "count": 943,
      "HE": 944,
      "Not": 945,
      "One": 946,
      "Sm": 947,
      "gi": 948,
      "sing": 949,
      "sur": 950,
      "ets": 951,
      "being": 952,
      "astbound": 953,
      "2010": 954,
      "At": 955,
      "Bu": 956,
      "je": 957,
      "kid": 958,
      "mber": 959,
      "ved": 960,
      "into": 961,
      "ale": 962,
      "best": 963,
      "Some": 964,
      "riday": 965,
      "50": 966,
      "Mar": 967,
      "Sy": 968,
      "Tra": 969,
      "due": 970,
      "ip": 971,
      "less": 972,
      "mas": 973,
      "sou": 974,
      "wom": 975,
      "red": 976,
      "lot": 977,
      "ics": 978,
      "light": 979,
      "amn": 980,
      "hope": 981,
      "sleep": 982,
      ").": 983,
      "AR": 984,
      "Cle": 985,
      "DI": 986,
      "Don": 987,
      "Power": 988,
      "SE": 989,
      "UK": 990,
      "lad": 991,
      "sy": 992,
      "yes": 993,
      "stud": 994,
      "Chiropractic": 995,
      "Why": 996,
      "Inter": 997,
      "augh": 998,
      "same": 999,
      "looks": 1000,
      "TI": 1001,
      "Tr": 1002,
      "ah": 1003,
      "bre": 1004,
      "house": 1005,
      "pt": 1006,
      "uff": 1007,
      "xD": 1008,
      "though": 1009,
      "oun": 1010,
      "ston": 1011,
      "usic": 1012,
      "Christ": 1013,
      "gotta": 1014,
      "18": 1015,
      ";)": 1016,
      "Business": 1017,
      "Gr": 1018,
      "Tom": 1019,
      "cant": 1020,
      "ft": 1021,
      "says": 1022,
      "tri": 1023,
      "war": 1024,
      "their": 1025,
      "hell": 1026,
      "ask": 1027,
      "actu": 1028,
      "lip": 1029,
      "When": 1030,
      "press": 1031,
      "didn": 1032,
      "times": 1033,
      "40": 1034,
      "Co": 1035,
      "Mac": 1036,
      "Ne": 1037,
      "Out": 1038,
      "UN": 1039,
      "Watch": 1040,
      "cer": 1041,
      "cent": 1042,
      "cra": 1043,
      "cast": 1044,
      "gs": 1045,
      "game": 1046,
      "vo": 1047,
      "ons": 1048,
      "ste": 1049,
      "ings": 1050,
      "orry": 1051,
      "lly": 1052,
      "ars": 1053,
      "before": 1054,
      "AND": 1055,
      "**": 1056,
      "AL": 1057,
      "Ener": 1058,
      "Le": 1059,
      "Oh": 1060,
      "Pl": 1061,
      "Up": 1062,
      "dat": 1063,
      "fo": 1064,
      "ial": 1065,
      "made": 1066,
      "nice": 1067,
      "pa": 1068,
      "pers": 1069,
      "sit": 1070,
      "sha": 1071,
      "tty": 1072,
      "ub": 1073,
      "win": 1074,
      "wise": 1075,
      "around": 1076,
      "tili": 1077,
      "key": 1078,
      "solu": 1079,
      "episo": 1080,
      "whats": 1081,
      "solution": 1082,
      "19": 1083,
      "A3": 1084,
      "Cl": 1085,
      "LA": 1086,
      "More": 1087,
      "ST": 1088,
      "boo": 1089,
      "bro": 1090,
      "cut": 1091,
      "done": 1092,
      "dif": 1093,
      "sl": 1094,
      "mean": 1095,
      "hey": 1096,
      "char": 1097,
      "ames": 1098,
      "uters": 1099,
      "something": 1100,
      "name": 1101,
      "Reuters": 1102,
      "2009": 1103,
      "ohn": 1104,
      "Southbound": 1105,
      "friends": 1106,
      "lane": 1107,
      "Energy": 1108,
      "App": 1109,
      "Acc": 1110,
      "Best": 1111,
      "Di": 1112,
      "Great": 1113,
      "May": 1114,
      "Ste": 1115,
      "Video": 1116,
      "book": 1117,
      "cy": 1118,
      "dri": 1119,
      "far": 1120,
      "find": 1121,
      "kin": 1122,
      "set": 1123,
      "ues": 1124,
      "yu": 1125,
      "ines": 1126,
      "thought": 1127,
      "hear": 1128,
      "lock": 1129,
      "wear": 1130,
      "They": 1131,
      "getting": 1132,
      "ational": 1133,
      "North": 1134,
      "World": 1135,
      "wait": 1136,
      "Surgery": 1137,
      "tilize": 1138,
      "Cy": 1139,
      "Tim": 1140,
      "Will": 1141,
      "ake": 1142,
      "bed": 1143,
      "cour": 1144,
      "vice": 1145,
      "ww": 1146,
      "wish": 1147,
      ".....": 1148,
      "ork": 1149,
      "ales": 1150,
      "?????": 1151,
      "acks": 1152,
      "while": 1153,
      "comp": 1154,
      "gram": 1155,
      "two": 1156,
      "Northbound": 1157,
      "AD": 1158,
      "BE": 1159,
      "MO": 1160,
      "Mor": 1161,
      "Plast": 1162,
      "ef": 1163,
      "fi": 1164,
      "ii": 1165,
      "laugh": 1166,
      "mfa": 1167,
      "zing": 1168,
      "ince": 1169,
      "tive": 1170,
      "haaa": 1171,
      "igital": 1172,
      "Online": 1173,
      "phone": 1174,
      "happy": 1175,
      "ittle": 1176,
      "based": 1177,
      "actually": 1178,
      "Plastic": 1179,
      ":(": 1180,
      "CO": 1181,
      "Every": 1182,
      "Hi": 1183,
      "John": 1184,
      "Sc": 1185,
      "ev": 1186,
      "fl": 1187,
      "hit": 1188,
      "job": 1189,
      "ken": 1190,
      "kno": 1191,
      "men": 1192,
      "must": 1193,
      "mind": 1194,
      "ness": 1195,
      "rb": 1196,
      "yet": 1197,
      "reme": 1198,
      "esome": 1199,
      "load": 1200,
      "oft": 1201,
      "ote": 1202,
      "plan": 1203,
      "estion": 1204,
      "tions": 1205,
      "ife": 1206,
      "cont": 1207,
      "someone": 1208,
      "ture": 1209,
      "prov": 1210,
      "aily": 1211,
      "India": 1212,
      "Phone": 1213,
      "turn": 1214,
      "southbound": 1215,
      "Times": 1216,
      "13": 1217,
      "21": 1218,
      "Del": 1219,
      "Friday": 1220,
      "HA": 1221,
      "Ob": 1222,
      "damn": 1223,
      "hard": 1224,
      "mar": 1225,
      "que": 1226,
      "roo": 1227,
      "sid": 1228,
      "wo": 1229,
      "wal": 1230,
      "yall": 1231,
      "ones": 1232,
      "reg": 1233,
      "ren": 1234,
      "icle": 1235,
      "because": 1236,
      "hair": 1237,
      "vert": 1238,
      "ters": 1239,
      "logy": 1240,
      "word": 1241,
      "box": 1242,
      "aint": 1243,
      "away": 1244,
      "Web": 1245,
      "Hey": 1246,
      "northbound": 1247,
      "02": 1248,
      "Ha": 1249,
      "Her": 1250,
      "business": 1251,
      "ces": 1252,
      "ged": 1253,
      "hour": 1254,
      "lmfa": 1255,
      "sup": 1256,
      "uck": 1257,
      "vie": 1258,
      "ange": 1259,
      "another": 1260,
      "stuff": 1261,
      "asy": 1262,
      "...:": 1263,
      "add": 1264,
      "unch": 1265,
      "under": 1266,
      "ago": 1267,
      "nothing": 1268,
      "ulti": 1269,
      "many": 1270,
      "22": 1271,
      "60": 1272,
      "CE": 1273,
      "ED": 1274,
      "Net": 1275,
      "care": 1276,
      "ell": 1277,
      "few": 1278,
      "fil": 1279,
      "food": 1280,
      "fast": 1281,
      "ges": 1282,
      "gra": 1283,
      "kind": 1284,
      "mp": 1285,
      "mom": 1286,
      "money": 1287,
      "val": 1288,
      "ank": 1289,
      "ening": 1290,
      "ited": 1291,
      "chat": 1292,
      "west": 1293,
      "days": 1294,
      "There": 1295,
      "cts": 1296,
      "ctor": 1297,
      "cted": 1298,
      "pring": 1299,
      "Health": 1300,
      "pretty": 1301,
      "funny": 1302,
      "okay": 1303,
      "maybe": 1304,
      "Quit": 1305,
      "Christmas": 1306,
      "14": 1307,
      "FA": 1308,
      "HO": 1309,
      "M25": 1310,
      "Who": 1311,
      "York": 1312,
      "cident": 1313,
      "din": 1314,
      "ky": 1315,
      "music": 1316,
      "pol": 1317,
      "test": 1318,
      "ying": 1319,
      "inq": 1320,
      "hehe": 1321,
      "ica": 1322,
      "ooo": 1323,
      "???????": 1324,
      "coming": 1325,
      "awesome": 1326,
      "VER": 1327,
      "Star": 1328,
      "check": 1329,
      "everything": 1330,
      "morning": 1331,
      "ganic": 1332,
      "?..": 1333,
      "A4": 1334,
      "DO": 1335,
      "Edit": 1336,
      "FF": 1337,
      "Follow": 1338,
      "NT": 1339,
      "PS": 1340,
      "Super": 1341,
      "cal": 1342,
      "eat": 1343,
      "hot": 1344,
      "iPhone": 1345,
      "pass": 1346,
      "rough": 1347,
      "son": 1348,
      "ug": 1349,
      "vis": 1350,
      "wn": 1351,
      "ouch": 1352,
      "als": 1353,
      "already": 1354,
      "youn": 1355,
      "lease": 1356,
      "ford": 1357,
      "seen": 1358,
      "soon": 1359,
      "ney": 1360,
      "aste": 1361,
      "ister": 1362,
      "class": 1363,
      "true": 1364,
      "Cont": 1365,
      "000": 1366,
      "ize": 1367,
      "guess": 1368,
      "tweets": 1369,
      "pics": 1370,
      "puter": 1371,
      "atural": 1372,
      "Apple": 1373,
      "room": 1374,
      "24": 1375,
      "33": 1376,
      "Ac": 1377,
      "Cor": 1378,
      "Col": 1379,
      "Digital": 1380,
      "FID": 1381,
      "Green": 1382,
      "RFID": 1383,
      "Stop": 1384,
      "Top": 1385,
      "cks": 1386,
      "fav": 1387,
      "hate": 1388,
      "ier": 1389,
      "later": 1390,
      "pick": 1391,
      "sorry": 1392,
      "yy": 1393,
      "ount": 1394,
      "ouston": 1395,
      "ata": 1396,
      "these": 1397,
      "esh": 1398,
      "ooc": 1399,
      "point": 1400,
      "olle": 1401,
      "ardian": 1402,
      "ular": 1403,
      "China": 1404,
      "years": 1405,
      "attle": 1406,
      "morrow": 1407,
      "Tips": 1408,
      "family": 1409,
      "Clear": 1410,
      "episodes": 1411,
      "Obama": 1412,
      "A1": 1413,
      "About": 1414,
      "BO": 1415,
      "Big": 1416,
      "Email": 1417,
      "M4": 1418,
      "Min": 1419,
      "Mic": 1420,
      "Multi": 1421,
      "Ok": 1422,
      "Pol": 1423,
      "Ser": 1424,
      "She": 1425,
      "Spe": 1426,
      "ahaha": 1427,
      "bur": 1428,
      "came": 1429,
      "face": 1430,
      "hur": 1431,
      "hicle": 1432,
      "led": 1433,
      "little": 1434,
      "ris": 1435,
      "vent": 1436,
      "yo": 1437,
      "enti": 1438,
      "town": 1439,
      "lls": 1440,
      "ows": 1441,
      "oot": 1442,
      "amp": 1443,
      "urs": 1444,
      "myself": 1445,
      "each": 1446,
      "comm": 1447,
      "commer": 1448,
      "anything": 1449,
      "mins": 1450,
      "build": 1451,
      "South": 1452,
      "Guardian": 1453,
      "Black": 1454,
      "lieve": 1455,
      "kids": 1456,
      "Morning": 1457,
      "26": 1458,
      "34": 1459,
      "Bro": 1460,
      "Car": 1461,
      "Daily": 1462,
      "Eastbound": 1463,
      "Jo": 1464,
      "LI": 1465,
      "Night": 1466,
      "Per": 1467,
      "WI": 1468,
      "Yea": 1469,
      "bor": 1470,
      "bar": 1471,
      "bum": 1472,
      "city": 1473,
      "high": 1474,
      "ima": 1475,
      "vill": 1476,
      "ati": 1477,
      "ator": 1478,
      "ative": 1479,
      "stand": 1480,
      "eng": 1481,
      "told": 1482,
      "itor": 1483,
      "least": 1484,
      "oftw": 1485,
      "child": 1486,
      "ung": 1487,
      "ots": 1488,
      "ared": 1489,
      "ird": 1490,
      "ants": 1491,
      "ult": 1492,
      "cling": 1493,
      "aaaa": 1494,
      "reatment": 1495,
      "tonight": 1496,
      "Max": 1497,
      "those": 1498,
      "cord": 1499,
      "Westbound": 1500,
      "party": 1501,
      "wards": 1502,
      "break": 1503,
      "crazy": 1504,
      "person": 1505,
      "Accident": 1506,
      "oftware": 1507,
      "27": 1508,
      "29": 1509,
      "Bre": 1510,
      "CH": 1511,
      "DD": 1512,
      "Got": 1513,
      "Life": 1514,
      "OM": 1515,
      "Off": 1516,
      "PC": 1517,
      "Pre": 1518,
      "Show": 1519,
      "TU": 1520,
      "found": 1521,
      "pap": 1522,
      "sound": 1523,
      "sign": 1524,
      "tt": 1525,
      "vv": 1526,
      "ery": 1527,
      "iting": 1528,
      "ict": 1529,
      "vest": 1530,
      "velo": 1531,
      "change": 1532,
      "ross": 1533,
      "having": 1534,
      "sho": 1535,
      "using": 1536,
      "cost": 1537,
      "boy": 1538,
      "both": 1539,
      "Well": 1540,
      "tract": 1541,
      "followers": 1542,
      "guy": 1543,
      "service": 1544,
      "watching": 1545,
      "fuck": 1546,
      "NEW": 1547,
      "differ": 1548,
      "By": 1549,
      "Care": 1550,
      "Cong": 1551,
      "Dis": 1552,
      "Day": 1553,
      "HT": 1554,
      "Hel": 1555,
      "Home": 1556,
      "Happ": 1557,
      "Ke": 1558,
      "Let": 1559,
      "Like": 1560,
      "SM": 1561,
      "VI": 1562,
      "War": 1563,
      "ai": 1564,
      "date": 1565,
      "fic": 1566,
      "hy": 1567,
      "kn": 1568,
      "nigg": 1569,
      "pay": 1570,
      "ral": 1571,
      "sent": 1572,
      "side": 1573,
      "wow": 1574,
      "meet": 1575,
      "heard": 1576,
      "also": 1577,
      "almost": 1578,
      "tiful": 1579,
      "lim": 1580,
      "which": 1581,
      "ions": 1582,
      "arent": 1583,
      "rip": 1584,
      "astic": 1585,
      "comes": 1586,
      "tain": 1587,
      "takes": 1588,
      "Where": 1589,
      "agement": 1590,
      "sub": 1591,
      "full": 1592,
      "bitch": 1593,
      "baby": 1594,
      "bably": 1595,
      "remember": 1596,
      "Delhi": 1597,
      "04": 1598,
      "06": 1599,
      "36": 1600,
      "AF": 1601,
      "ALL": 1602,
      "CRE": 1603,
      "Did": 1604,
      "Food": 1605,
      "TE": 1606,
      "WH": 1607,
      "__": 1608,
      "az": 1609,
      "ced": 1610,
      "col": 1611,
      "cus": 1612,
      "den": 1613,
      "gest": 1614,
      "hold": 1615,
      "late": 1616,
      "mad": 1617,
      "ping": 1618,
      "saw": 1619,
      "via": 1620,
      "incre": 1621,
      "once": 1622,
      "tomorrow": 1623,
      "itch": 1624,
      "esday": 1625,
      "ican": 1626,
      "ices": 1627,
      "lead": 1628,
      "vehicle": 1629,
      "ada": 1630,
      "hah": 1631,
      "ham": 1632,
      "ams": 1633,
      "makes": 1634,
      "def": 1635,
      "dead": 1636,
      "board": 1637,
      "ief": 1638,
      "LOVE": 1639,
      "grow": 1640,
      "clock": 1641,
      "talking": 1642,
      "attack": 1643,
      "amazing": 1644,
      "interest": 1645,
      "osis": 1646,
      "bsite": 1647,
      "--------": 1648,
      "Multiple": 1649,
      ".\"": 1650,
      "28": 1651,
      "A6": 1652,
      "AM": 1653,
      "Am": 1654,
      "Back": 1655,
      "BLE": 1656,
      "Des": 1657,
      "DAY": 1658,
      "ET": 1659,
      "FL": 1660,
      "GO": 1661,
      "Ho": 1662,
      "Houston": 1663,
      "Kat": 1664,
      "Live": 1665,
      "M5": 1666,
      "Mer": 1667,
      "Res": 1668,
      "UR": 1669,
      "Utilize": 1670,
      "ath": 1671,
      "fall": 1672,
      "fact": 1673,
      "ga": 1674,
      "gar": 1675,
      "hom": 1676,
      "market": 1677,
      "nal": 1678,
      "natural": 1679,
      "pho": 1680,
      "run": 1681,
      "super": 1682,
      "since": 1683,
      "wer": 1684,
      "wat": 1685,
      "wen": 1686,
      "yle": 1687,
      "erosis": 1688,
      "ana": 1689,
      "ont": 1690,
      "ony": 1691,
      "stem": 1692,
      "ites": 1693,
      "ition": 1694,
      "ities": 1695,
      "met": 1696,
      "eter": 1697,
      "icks": 1698,
      "ady": 1699,
      "til": 1700,
      "fort": 1701,
      "believe": 1702,
      "sey": 1703,
      "making": 1704,
      "near": 1705,
      "ester": 1706,
      "ages": 1707,
      "text": 1708,
      "open": 1709,
      "umber": 1710,
      "conf": 1711,
      "cover": 1712,
      "bring": 1713,
      "aww": 1714,
      "ext": 1715,
      "Its": 1716,
      "pped": 1717,
      "clerosis": 1718,
      "offer": 1719,
      "oooooooo": 1720,
      "everyone": 1721,
      "feeling": 1722,
      "IDE": 1723,
      "Make": 1724,
      "month": 1725,
      "wonder": 1726,
      "annel": 1727,
      "thinking": 1728,
      "wrong": 1729,
      "women": 1730,
      "Internet": 1731,
      "westbound": 1732,
      "Happy": 1733,
      "(:": 1734,
      "17": 1735,
      "23": 1736,
      "Ag": 1737,
      "Amer": 1738,
      "BA": 1739,
      "Girl": 1740,
      "LY": 1741,
      "Loo": 1742,
      "PD": 1743,
      "Stu": 1744,
      "TA": 1745,
      "TW": 1746,
      "eastbound": 1747,
      "gl": 1748,
      "gin": 1749,
      "gone": 1750,
      "mix": 1751,
      "ns": 1752,
      "par": 1753,
      "rr": 1754,
      "snow": 1755,
      "slip": 1756,
      "ual": 1757,
      "vs": 1758,
      "thers": 1759,
      "heart": 1760,
      "aly": 1761,
      "idea": 1762,
      "aces": 1763,
      "unk": 1764,
      "soci": 1765,
      "web": 1766,
      "ute": 1767,
      "uture": 1768,
      "omg": 1769,
      "else": 1770,
      "rain": 1771,
      "without": 1772,
      "imma": 1773,
      "eath": 1774,
      "ession": 1775,
      "umm": 1776,
      "works": 1777,
      "convert": 1778,
      "things": 1779,
      "gether": 1780,
      "took": 1781,
      "INCRE": 1782,
      "Stand": 1783,
      "screen": 1784,
      "Loss": 1785,
      "guys": 1786,
      "WiMA": 1787,
      "mmm": 1788,
      "Thank": 1789,
      "Convert": 1790,
      "DIBLE": 1791,
      "Need": 1792,
      "course": 1793,
      "Scot": 1794,
      "Content": 1795,
      "photo": 1796,
      "INCREDIBLE": 1797,
      "WiMAX": 1798,
      "05": 1799,
      "38": 1800,
      "52": 1801,
      "Af": 1802,
      "Ber": 1803,
      "Cap": 1804,
      "IG": 1805,
      "LD": 1806,
      "M1": 1807,
      "NY": 1808,
      "OF": 1809,
      "SH": 1810,
      "SO": 1811,
      "Was": 1812,
      "Wom": 1813,
      "ban": 1814,
      "bus": 1815,
      "dro": 1816,
      "dnt": 1817,
      "dio": 1818,
      "fre": 1819,
      "fig": 1820,
      "fire": 1821,
      "mat": 1822,
      "mill": 1823,
      "mess": 1824,
      "sn": 1825,
      "vol": 1826,
      "water": 1827,
      "through": 1828,
      "reason": 1829,
      "state": 1830,
      "iter": 1831,
      "arm": 1832,
      "ese": 1833,
      "alk": 1834,
      "ley": 1835,
      "cho": 1836,
      "tips": 1837,
      "unity": 1838,
      "iles": 1839,
      "wife": 1840,
      "irth": 1841,
      "movie": 1842,
      "cele": 1843,
      "ards": 1844,
      "words": 1845,
      "100": 1846,
      "earch": 1847,
      "Heart": 1848,
      "looking": 1849,
      "didnt": 1850,
      "anyone": 1851,
      "black": 1852,
      "ONE": 1853,
      "EST": 1854,
      "Pod": 1855,
      "chester": 1856,
      "Season": 1857,
      "Work": 1858,
      "called": 1859,
      "Uni": 1860,
      "NOW": 1861,
      "doesn": 1862,
      "Time": 1863,
      "woman": 1864,
      "Lead": 1865,
      "!?": 1866,
      "))": 1867,
      "01": 1868,
      "35": 1869,
      "=/": 1870,
      "AG": 1871,
      "Aust": 1872,
      "Bar": 1873,
      "FO": 1874,
      "From": 1875,
      "First": 1876,
      "Here": 1877,
      "Haa": 1878,
      "Have": 1879,
      "House": 1880,
      "King": 1881,
      "Li": 1882,
      "MY": 1883,
      "OS": 1884,
      "PE": 1885,
      "Part": 1886,
      "Right": 1887,
      "Su": 1888,
      "Sim": 1889,
      "Vi": 1890,
      "ba": 1891,
      "ca": 1892,
      "case": 1893,
      "dd": 1894,
      "ded": 1895,
      "gas": 1896,
      "prom": 1897,
      "uk": 1898,
      "ush": 1899,
      "ately": 1900,
      "star": 1901,
      "arch": 1902,
      "ali": 1903,
      "tiv": 1904,
      "ides": 1905,
      "beat": 1906,
      "haa": 1907,
      "urn": 1908,
      "enter": 1909,
      "ply": 1910,
      "moving": 1911,
      "hop": 1912,
      "cell": 1913,
      "nology": 1914,
      "goin": 1915,
      "computer": 1916,
      "working": 1917,
      "apan": 1918,
      "cond": 1919,
      "program": 1920,
      "Head": 1921,
      "Today": 1922,
      "thank": 1923,
      "question": 1924,
      "blic": 1925,
      "hahaha": 1926,
      "Social": 1927,
      "saying": 1928,
      "Any": 1929,
      "please": 1930,
      "serious": 1931,
      "Blue": 1932,
      "Monday": 1933,
      "giving": 1934,
      "ject": 1935,
      "Cycling": 1936,
      "sider": 1937,
      "lmfao": 1938,
      "Yeah": 1939,
      "Help": 1940,
      "08": 1941,
      "039": 1942,
      "45": 1943,
      "47": 1944,
      "A30": 1945,
      "Call": 1946,
      "Fl": 1947,
      "IM": 1948,
      "Job": 1949,
      "Japan": 1950,
      "MM": 1951,
      "Mi": 1952,
      "Mail": 1953,
      "Nice": 1954,
      "Over": 1955,
      "Pan": 1956,
      "Par": 1957,
      "Pal": 1958,
      "Ret": 1959,
      "Song": 1960,
      "School": 1961,
      "Use": 1962,
      "UCK": 1963,
      "bud": 1964,
      "cri": 1965,
      "dire": 1966,
      "dream": 1967,
      "death": 1968,
      "een": 1969,
      "flu": 1970,
      "foot": 1971,
      "hind": 1972,
      "low": 1973,
      "mist": 1974,
      "ni": 1975,
      "pain": 1976,
      "sun": 1977,
      "sweet": 1978,
      "uro": 1979,
      "ona": 1980,
      "onic": 1981,
      "rend": 1982,
      "report": 1983,
      "record": 1984,
      "str": 1985,
      "owl": 1986,
      "ete": 1987,
      "ety": 1988,
      "andom": 1989,
      "ald": 1990,
      "leave": 1991,
      "left": 1992,
      "rol": 1993,
      "roll": 1994,
      "become": 1995,
      "season": 1996,
      "alley": 1997,
      "website": 1998,
      "place": 1999,
      "pop": 2000,
      "cept": 2001,
      "deal": 2002,
      "ctions": 2003,
      "ments": 2004,
      "offic": 2005,
      "small": 2006,
      "smile": 2007,
      "whole": 2008,
      "girls": 2009,
      "Should": 2010,
      "Arch": 2011,
      "ccess": 2012,
      "Organic": 2013,
      "lockwise": 2014,
      "fiel": 2015,
      "hours": 2016,
      "Network": 2017,
      "hurt": 2018,
      "ursday": 2019,
      "clockwise": 2020,
      "figure": 2021,
      "!)": 2022,
      "03": 2023,
      "32": 2024,
      "AA": 2025,
      "Air": 2026,
      "Ben": 2027,
      "Bas": 2028,
      "Dan": 2029,
      "Dire": 2030,
      "Data": 2031,
      "Fat": 2032,
      "Fun": 2033,
      "High": 2034,
      "Lol": 2035,
      "List": 2036,
      "Look": 2037,
      "Mc": 2038,
      "OW": 2039,
      "Pri": 2040,
      "RB": 2041,
      "San": 2042,
      "Sha": 2043,
      "Sclerosis": 2044,
      "Treatment": 2045,
      "Valley": 2046,
      "Way": 2047,
      "aid": 2048,
      "ahah": 2049,
      "band": 2050,
      "bill": 2051,
      "cam": 2052,
      "colle": 2053,
      "ding": 2054,
      "dad": 2055,
      "hol": 2056,
      "ili": 2057,
      "ible": 2058,
      "ki": 2059,
      "marketing": 2060,
      "nment": 2061,
      "ugh": 2062,
      "va": 2063,
      "vin": 2064,
      "vid": 2065,
      "wt": 2066,
      "zz": 2067,
      "ining": 2068,
      "anti": 2069,
      "rew": 2070,
      "reet": 2071,
      "story": 2072,
      "style": 2073,
      "ense": 2074,
      "towards": 2075,
      "ism": 2076,
      "isn": 2077,
      "arrest": 2078,
      "health": 2079,
      "ched": 2080,
      "forgot": 2081,
      "idk": 2082,
      "bey": 2083,
      "action": 2084,
      "sol": 2085,
      "shi": 2086,
      "ship": 2087,
      "els": 2088,
      "ples": 2089,
      "ager": 2090,
      "dog": 2091,
      "goes": 2092,
      "gover": 2093,
      "develo": 2094,
      "ournal": 2095,
      "Channel": 2096,
      "covery": 2097,
      "produ": 2098,
      "probably": 2099,
      "exc": 2100,
      "prof": 2101,
      "akes": 2102,
      "ized": 2103,
      "download": 2104,
      "tweeting": 2105,
      "fully": 2106,
      "formation": 2107,
      "dition": 2108,
      "Tech": 2109,
      "asked": 2110,
      "paid": 2111,
      "laughs": 2112,
      "provide": 2113,
      "Yorkshire": 2114,
      "dinner": 2115,
      "young": 2116,
      "commercial": 2117,
      "Broken": 2118,
      "different": 2119,
      "Congress": 2120,
      "SMH": 2121,
      "AFP": 2122,
      "interesting": 2123,
      "irthday": 2124,
      "(#": 2125,
      "AC": 2126,
      "BS": 2127,
      "BU": 2128,
      "Bet": 2129,
      "Cam": 2130,
      "City": 2131,
      "Come": 2132,
      "DE": 2133,
      "DJ": 2134,
      "Dr": 2135,
      "Down": 2136,
      "Fo": 2137,
      "Fre": 2138,
      "Hy": 2139,
      "Ju": 2140,
      "KE": 2141,
      "Ken": 2142,
      "Know": 2143,
      "Key": 2144,
      "MI": 2145,
      "MS": 2146,
      "Pe": 2147,
      "Press": 2148,
      "Please": 2149,
      "Sto": 2150,
      "Sound": 2151,
      "Spring": 2152,
      "Search": 2153,
      "Tu": 2154,
      "Tele": 2155,
      "Two": 2156,
      "Win": 2157,
      "Yes": 2158,
      "ape": 2159,
      "aking": 2160,
      "ctive": 2161,
      "dra": 2162,
      "easy": 2163,
      "fan": 2164,
      "future": 2165,
      "gle": 2166,
      "glad": 2167,
      "han": 2168,
      "ither": 2169,
      "iPod": 2170,
      "ked": 2171,
      "lin": 2172,
      "law": 2173,
      "ned": 2174,
      "ring": 2175,
      "random": 2176,
      "site": 2177,
      "software": 2178,
      "utilize": 2179,
      "went": 2180,
      "wins": 2181,
      "inst": 2182,
      "stup": 2183,
      "order": 2184,
      "iti": 2185,
      "llo": 2186,
      "ara": 2187,
      "lex": 2188,
      "leas": 2189,
      "rock": 2190,
      "till": 2191,
      "forms": 2192,
      "forward": 2193,
      "haven": 2194,
      "lil": 2195,
      "ammy": 2196,
      "white": 2197,
      "shes": 2198,
      "ific": 2199,
      "compl": 2200,
      "ump": 2201,
      "appe": 2202,
      "Real": 2203,
      "Review": 2204,
      "early": 2205,
      "Weight": 2206,
      "Week": 2207,
      "ired": 2208,
      "CAN": 2209,
      "emails": 2210,
      "club": 2211,
      "THAT": 2212,
      "close": 2213,
      "wants": 2214,
      "missed": 2215,
      "following": 2216,
      "answer": 2217,
      "Does": 2218,
      "Management": 2219,
      "tryna": 2220,
      "sending": 2221,
      "weekend": 2222,
      "happen": 2223,
      "NOT": 2224,
      "dible": 2225,
      "listening": 2226,
      "announ": 2227,
      "killed": 2228,
      "roadcast": 2229,
      "Spy": 2230,
      "Sunday": 2231,
      "ancing": 2232,
      "aturday": 2233,
      "crash": 2234,
      "HERE": 2235,
      "students": 2236,
      "stead": 2237,
      "ackson": 2238,
      "kinda": 2239,
      "fordshire": 2240,
      "ville": 2241,
      "OMG": 2242,
      "paper": 2243,
      "arents": 2244,
      "esterday": 2245,
      "Standard": 2246,
      "-)": 2247,
      "Au": 2248,
      "Ant": 2249,
      "A12": 2250,
      "Bad": 2251,
      "Bea": 2252,
      "Che": 2253,
      "Could": 2254,
      "Ed": 2255,
      "Fe": 2256,
      "FOR": 2257,
      "Gl": 2258,
      "ION": 2259,
      "ITV": 2260,
      "Je": 2261,
      "LLO": 2262,
      "Mur": 2263,
      "Mag": 2264,
      "Miss": 2265,
      "Mark": 2266,
      "National": 2267,
      "RI": 2268,
      "SP": 2269,
      "Str": 2270,
      "See": 2271,
      "Sales": 2272,
      "Saturday": 2273,
      "Ty": 2274,
      "Tor": 2275,
      "UP": 2276,
      "Ve": 2277,
      "Waste": 2278,
      "aim": 2279,
      "cli": 2280,
      "cking": 2281,
      "cap": 2282,
      "dance": 2283,
      "eating": 2284,
      "fly": 2285,
      "fight": 2286,
      "four": 2287,
      "gg": 2288,
      "jor": 2289,
      "non": 2290,
      "por": 2291,
      "pair": 2292,
      "parents": 2293,
      "sci": 2294,
      "such": 2295,
      "soft": 2296,
      "yesterday": 2297,
      "za": 2298,
      "incl": 2299,
      "oup": 2300,
      "rel": 2301,
      "enough": 2302,
      "together": 2303,
      "thes": 2304,
      "heav": 2305,
      "ties": 2306,
      "ids": 2307,
      "beau": 2308,
      "behind": 2309,
      "hael": 2310,
      "acc": 2311,
      "uni": 2312,
      "amm": 2313,
      "entry": 2314,
      "wire": 2315,
      "shut": 2316,
      "shop": 2317,
      "upp": 2318,
      "ended": 2319,
      "dey": 2320,
      "contin": 2321,
      "sometimes": 2322,
      "Info": 2323,
      "boss": 2324,
      "expe": 2325,
      "pping": 2326,
      "tru": 2327,
      "technology": 2328,
      "wanted": 2329,
      "Ang": 2330,
      "Ann": 2331,
      "Manchester": 2332,
      "Comp": 2333,
      "UST": 2334,
      "Seattle": 2335,
      "dude": 2336,
      "trying": 2337,
      "front": 2338,
      "clean": 2339,
      "joy": 2340,
      "Small": 2341,
      "single": 2342,
      "surgery": 2343,
      "Build": 2344,
      "Travel": 2345,
      "Grammy": 2346,
      "Greater": 2347,
      "Maybe": 2348,
      "favor": 2349,
      "celebr": 2350,
      "Austral": 2351,
      "stupid": 2352,
      "42": 2353,
      "::": 2354,
      "AW": 2355,
      "ARE": 2356,
      "Boo": 2357,
      "CD": 2358,
      "Cra": 2359,
      "Ear": 2360,
      "Five": 2361,
      "Fact": 2362,
      "HD": 2363,
      "Ill": 2364,
      "Jan": 2365,
      "James": 2366,
      "Lon": 2367,
      "LMA": 2368,
      "MV": 2369,
      "Met": 2370,
      "Mid": 2371,
      "Market": 2372,
      "Om": 2373,
      "Pain": 2374,
      "Plan": 2375,
      "QU": 2376,
      "Ri": 2377,
      "Rep": 2378,
      "Sen": 2379,
      "Ter": 2380,
      "Tur": 2381,
      "Tues": 2382,
      "VIDE": 2383,
      "bt": 2384,
      "ben": 2385,
      "bers": 2386,
      "cry": 2387,
      "cul": 2388,
      "catch": 2389,
      "cook": 2390,
      "dom": 2391,
      "fine": 2392,
      "five": 2393,
      "fail": 2394,
      "gine": 2395,
      "hist": 2396,
      "ith": 2397,
      "jer": 2398,
      "mal": 2399,
      "national": 2400,
      "number": 2401,
      "past": 2402,
      "ror": 2403,
      "ten": 2404,
      "uu": 2405,
      "ude": 2406,
      "uary": 2407,
      "var": 2408,
      "thor": 2409,
      "rect": 2410,
      "resp": 2411,
      "stay": 2412,
      "step": 2413,
      "ency": 2414,
      "leg": 2415,
      "chill": 2416,
      "chief": 2417,
      "account": 2418,
      "unic": 2419,
      "ilt": 2420,
      "uring": 2421,
      "places": 2422,
      "rather": 2423,
      "rill": 2424,
      "aged": 2425,
      "host": 2426,
      "aster": 2427,
      "Think": 2428,
      "ource": 2429,
      "feat": 2430,
      "fect": 2431,
      "Chic": 2432,
      "tuesday": 2433,
      "Really": 2434,
      "audio": 2435,
      "istr": 2436,
      "ists": 2437,
      "Photo": 2438,
      "quest": 2439,
      "curity": 2440,
      "delay": 2441,
      "WiMax": 2442,
      "picture": 2443,
      "Box": 2444,
      "Getting": 2445,
      "EEEE": 2446,
      "listen": 2447,
      "hugs": 2448,
      "tiny": 2449,
      "Brown": 2450,
      "thinks": 2451,
      "sexy": 2452,
      "pull": 2453,
      "surpr": 2454,
      "system": 2455,
      "study": 2456,
      "Play": 2457,
      "Everyone": 2458,
      "boxes": 2459,
      "police": 2460,
      "vision": 2461,
      "Police": 2462,
      "sounds": 2463,
      "shoes": 2464,
      "Keep": 2465,
      "field": 2466,
      "beautiful": 2467,
      "VIDEO": 2468,
      "&&": 2469,
      "((": 2470,
      "07": 2471,
      "44": 2472,
      "46": 2473,
      "Bed": 2474,
      "Broadcast": 2475,
      "Cu": 2476,
      "Cos": 2477,
      "EG": 2478,
      "Em": 2479,
      "Ep": 2480,
      "EVER": 2481,
      "Euro": 2482,
      "Fam": 2483,
      "Fil": 2484,
      "Fran": 2485,
      "FUCK": 2486,
      "Goo": 2487,
      "Har": 2488,
      "Hair": 2489,
      "Las": 2490,
      "Law": 2491,
      "Lear": 2492,
      "Money": 2493,
      "Music": 2494,
      "ND": 2495,
      "NN": 2496,
      "OK": 2497,
      "Offic": 2498,
      "Pu": 2499,
      "Ren": 2500,
      "Red": 2501,
      "Rob": 2502,
      "SS": 2503,
      "Sci": 2504,
      "SON": 2505,
      "Too": 2506,
      "Tweet": 2507,
      "Won": 2508,
      "Wed": 2509,
      "Wal": 2510,
      "WMV": 2511,
      "Year": 2512,
      "bag": 2513,
      "creat": 2514,
      "das": 2515,
      "ders": 2516,
      "dies": 2517,
      "either": 2518,
      "fat": 2519,
      "friday": 2520,
      "hat": 2521,
      "mark": 2522,
      "pin": 2523,
      "ric": 2524,
      "radio": 2525,
      "sk": 2526,
      "sis": 2527,
      "sus": 2528,
      "sick": 2529,
      "sooo": 2530,
      "size": 2531,
      "tl": 2532,
      "tick": 2533,
      "van": 2534,
      "vir": 2535,
      "vies": 2536,
      "vices": 2537,
      "wine": 2538,
      "ined": 2539,
      "inal": 2540,
      "ints": 2541,
      "instead": 2542,
      "oud": 2543,
      "outh": 2544,
      "rey": 2545,
      "reti": 2546,
      "remind": 2547,
      "stor": 2548,
      "organic": 2549,
      "ised": 2550,
      "arn": 2551,
      "arget": 2552,
      "means": 2553,
      "loy": 2554,
      "alf": 2555,
      "level": 2556,
      "chance": 2557,
      "adv": 2558,
      "ida": 2559,
      "iday": 2560,
      "acy": 2561,
      "lier": 2562,
      "ami": 2563,
      "social": 2564,
      "ility": 2565,
      "urch": 2566,
      "shot": 2567,
      "short": 2568,
      "eler": 2569,
      "plastic": 2570,
      "raid": 2571,
      "gettin": 2572,
      "riz": 2573,
      "ried": 2574,
      "door": 2575,
      "poss": 2576,
      "??????????????": 2577,
      "Then": 2578,
      "Thursday": 2579,
      "nother": 2580,
      "ift": 2581,
      "ending": 2582,
      "dec": 2583,
      "conom": 2584,
      "White": 2585,
      "somebody": 2586,
      "boys": 2587,
      "extra": 2588,
      "exact": 2589,
      "Italy": 2590,
      "THIS": 2591,
      "needs": 2592,
      "clothes": 2593,
      "spot": 2594,
      "space": 2595,
      "smiles": 2596,
      "luck": 2597,
      "eeee": 2598,
      "everybody": 2599,
      "couple": 2600,
      "Produ": 2601,
      "Comm": 2602,
      "spects": 2603,
      "OOD": 2604,
      "OOOO": 2605,
      "ports": 2606,
      "internet": 2607,
      "Canada": 2608,
      "M62": 2609,
      "Monitor": 2610,
      "Brit": 2611,
      "media": 2612,
      "public": 2613,
      "talkin": 2614,
      "Rock": 2615,
      "finit": 2616,
      "version": 2617,
      "lady": 2618,
      "charged": 2619,
      "court": 2620,
      "jobs": 2621,
      "film": 2622,
      "Micro": 2623,
      "Michael": 2624,
      "Hope": 2625,
      "American": 2626,
      "FOLLO": 2627,
      "Archive": 2628,
      "government": 2629,
      "heavy": 2630,
      "LMAO": 2631,
      "FOLLOW": 2632,
      "\"\"": 2633,
      "1st": 2634,
      "31": 2635,
      "48": 2636,
      "49": 2637,
      "77": 2638,
      ">>": 2639,
      "?\"": 2640,
      "Aw": 2641,
      "Ass": 2642,
      "Aww": 2643,
      "Ariz": 2644,
      "Another": 2645,
      "Bra": 2646,
      "Bill": 2647,
      "CR": 2648,
      "CES": 2649,
      "Colle": 2650,
      "Ele": 2651,
      "Easy": 2652,
      "Fall": 2653,
      "Fire": 2654,
      "Gi": 2655,
      "Ger": 2656,
      "Has": 2657,
      "Hol": 2658,
      "Ima": 2659,
      "Journal": 2660,
      "Jackson": 2661,
      "Mad": 2662,
      "MIS": 2663,
      "PM": 2664,
      "Pa": 2665,
      "Park": 2666,
      "SW": 2667,
      "Sing": 2668,
      "Sup": 2669,
      "Snow": 2670,
      "Ton": 2671,
      "VIS": 2672,
      "Very": 2673,
      "Wow": 2674,
      "Wood": 2675,
      "Would": 2676,
      "Winter": 2677,
      "WOR": 2678,
      "[??": 2679,
      "ather": 2680,
      "bat": 2681,
      "cum": 2682,
      "cold": 2683,
      "dj": 2684,
      "dou": 2685,
      "dun": 2686,
      "dress": 2687,
      "gen": 2688,
      "gain": 2689,
      "gigg": 2690,
      "hor": 2691,
      "har": 2692,
      "hang": 2693,
      "knew": 2694,
      "lon": 2695,
      "link": 2696,
      "liter": 2697,
      "mi": 2698,
      "mur": 2699,
      "mir": 2700,
      "nn": 2701,
      "others": 2702,
      "pie": 2703,
      "ses": 2704,
      "soo": 2705,
      "sad": 2706,
      "sim": 2707,
      "sales": 2708,
      "twit": 2709,
      "ually": 2710,
      "vat": 2711,
      "wav": 2712,
      "yup": 2713,
      "review": 2714,
      "ature": 2715,
      "stri": 2716,
      "ising": 2717,
      "local": 2718,
      "album": 2719,
      "acking": 2720,
      "search": 2721,
      "second": 2722,
      "unt": 2723,
      "amb": 2724,
      "wee": 2725,
      "wel": 2726,
      "weird": 2727,
      "iler": 2728,
      "utes": 2729,
      "plain": 2730,
      "esti": 2731,
      "ersion": 2732,
      "agree": 2733,
      "tem": 2734,
      "team": 2735,
      "????????????": 2736,
      "???????????": 2737,
      "Three": 2738,
      "cep": 2739,
      "anta": 2740,
      "endent": 2741,
      "umb": 2742,
      "umn": 2743,
      "consider": 2744,
      "Incident": 2745,
      "proble": 2746,
      "auto": 2747,
      "exper": 2748,
      "pread": 2749,
      "seeing": 2750,
      "udd": 2751,
      "spital": 2752,
      "scen": 2753,
      "ESDAY": 2754,
      "Bey": 2755,
      "sayin": 2756,
      "luv": 2757,
      "reading": 2758,
      "tools": 2759,
      "Promo": 2760,
      "???????????????????": 2761,
      "ashion": 2762,
      "USA": 2763,
      "Thats": 2764,
      "spect": 2765,
      "cret": 2766,
      "Body": 2767,
      "Indian": 2768,
      "TRAVELTU": 2769,
      "correct": 2770,
      "atings": 2771,
      "YOUR": 2772,
      "formats": 2773,
      "range": 2774,
      "turb": 2775,
      "drama": 2776,
      "drunk": 2777,
      "famous": 2778,
      "isode": 2779,
      "MPEG": 2780,
      "lights": 2781,
      "share": 2782,
      "episode": 2783,
      "control": 2784,
      "provid": 2785,
      "files": 2786,
      "Editor": 2787,
      "ential": 2788,
      "niggas": 2789,
      "WHAT": 2790,
      "supernatural": 2791,
      "metic": 2792,
      "photos": 2793,
      "seriously": 2794,
      "Direct": 2795,
      "wtf": 2796,
      "excited": 2797,
      "includ": 2798,
      "London": 2799,
      "Tuesday": 2800,
      "Chicago": 2801,
      "tinychat": 2802,
      "TRAVELTUESDAY": 2803,
      "\".": 2804,
      "1N": 2805,
      "3G": 2806,
      "54": 2807,
      "59": 2808,
      "98": 2809,
      ":/": 2810,
      ":-)": 2811,
      "AH": 2812,
      "AIN": 2813,
      "Afr": 2814,
      "AVI": 2815,
      "Ban": 2816,
      "Blu": 2817,
      "CS": 2818,
      "Cha": 2819,
      "Card": 2820,
      "Cell": 2821,
      "CBS": 2822,
      "Ever": 2823,
      "East": 2824,
      "Fin": 2825,
      "Fly": 2826,
      "Find": 2827,
      "Face": 2828,
      "Friend": 2829,
      "GU": 2830,
      "Ge": 2831,
      "Gener": 2832,
      "Hall": 2833,
      "Hard": 2834,
      "HER": 2835,
      "Int": 2836,
      "J1": 2837,
      "Lu": 2838,
      "Mass": 2839,
      "MAN": 2840,
      "Mob": 2841,
      "Op": 2842,
      "Oly": 2843,
      "PR": 2844,
      "Psy": 2845,
      "PLA": 2846,
      "Skin": 2847,
      "Software": 2848,
      "Try": 2849,
      "Tex": 2850,
      "Ver": 2851,
      "Version": 2852,
      "Ya": 2853,
      "[????": 2854,
      "aur": 2855,
      "bon": 2856,
      "bes": 2857,
      "bow": 2858,
      "bot": 2859,
      "bly": 2860,
      "bcuz": 2861,
      "birthday": 2862,
      "dir": 2863,
      "fra": 2864,
      "fant": 2865,
      "fix": 2866,
      "gener": 2867,
      "green": 2868,
      "hung": 2869,
      "ju": 2870,
      "jed": 2871,
      "kit": 2872,
      "lap": 2873,
      "ming": 2874,
      "mine": 2875,
      "mouth": 2876,
      "nite": 2877,
      "pan": 2878,
      "ped": 2879,
      "pur": 2880,
      "pri": 2881,
      "page": 2882,
      "qht": 2883,
      "rs": 2884,
      "rup": 2885,
      "rum": 2886,
      "si": 2887,
      "six": 2888,
      "smoking": 2889,
      "sister": 2890,
      "tv": 2891,
      "treat": 2892,
      "trend": 2893,
      "ution": 2894,
      "utiful": 2895,
      "wide": 2896,
      "wats": 2897,
      "iner": 2898,
      "three": 2899,
      "ern": 2900,
      "anit": 2901,
      "anies": 2902,
      "ond": 2903,
      "ret": 2904,
      "return": 2905,
      "releas": 2906,
      "sts": 2907,
      "eno": 2908,
      "meant": 2909,
      "lose": 2910,
      "ayl": 2911,
      "ands": 2912,
      "icated": 2913,
      "alone": 2914,
      "along": 2915,
      "...\"": 2916,
      "chang": 2917,
      "adesh": 2918,
      "accident": 2919,
      "otes": 2920,
      "omb": 2921,
      "omin": 2922,
      "shxt": 2923,
      "shots": 2924,
      "outta": 2925,
      "plus": 2926,
      "update": 2927,
      "doin": 2928,
      "tex": 2929,
      "teen": 2930,
      "pose": 2931,
      "posit": 2932,
      "opport": 2933,
      "yourself": 2934,
      "taking": 2935,
      "worth": 2936,
      "ults": 2937,
      "fective": 2938,
      "Chris": 2939,
      "Information": 2940,
      "thern": 2941,
      "prove": 2942,
      "promo": 2943,
      "prospects": 2944,
      "101": 2945,
      "awww": 2946,
      "exit": 2947,
      "pray": 2948,
      "istan": 2949,
      "Hello": 2950,
      "claim": 2951,
      "pres": 2952,
      "preci": 2953,
      "seems": 2954,
      "spend": 2955,
      "izes": 2956,
      "Before": 2957,
      "type": 2958,
      "ANT": 2959,
      "minutes": 2960,
      "OUT": 2961,
      "phones": 2962,
      "ATION": 2963,
      "??????????????????": 2964,
      "????????????????????????": 2965,
      "success": 2966,
      "Computer": 2967,
      "speed": 2968,
      "speak": 2969,
      "special": 2970,
      "Dean": 2971,
      "lands": 2972,
      "Boys": 2973,
      "large": 2974,
      "largest": 2975,
      "Shit": 2976,
      "Art": 2977,
      "against": 2978,
      "calling": 2979,
      "M60": 2980,
      "!!!!!!!!": 2981,
      "eye": 2982,
      "eyes": 2983,
      "longer": 2984,
      "huh": 2985,
      "Going": 2986,
      "clear": 2987,
      "drink": 2988,
      "push": 2989,
      "Team": 2990,
      "Associ": 2991,
      "finish": 2992,
      "Pradesh": 2993,
      "March": 2994,
      "trip": 2995,
      "center": 2996,
      "****": 2997,
      "Clin": 2998,
      "cute": 2999,
      "Diet": 3000,
      "Stem": 3001,
      "farm": 3002,
      "?????]": 3003,
      "iiii": 3004,
      "woke": 3005,
      "Herald": 3006,
      "graph": 3007,
      "Special": 3008,
      "commerce": 3009,
      "breakfast": 3010,
      "vvvv": 3011,
      "NEWS": 3012,
      "knw": 3013,
      "cuss": 3014,
      "incredible": 3015,
      "Katy": 3016,
      "IGHT": 3017,
      "Unique": 3018,
      "official": 3019,
      "figured": 3020,
      "paidContent": 3021,
      "Fox": 3022,
      "clients": 3023,
      "Cuz": 3024,
      "Cosmetic": 3025,
      "Episode": 3026,
      "Google": 3027,
      "[??]": 3028,
      "Facebook": 3029,
      "Mobile": 3030,
      "hungry": 3031,
      "2nd": 3032,
      "43": 3033,
      "51": 3034,
      "55": 3035,
      "500": 3036,
      "Ab": 3037,
      "A10": 3038,
      "BI": 3039,
      "Cour": 3040,
      "Count": 3041,
      "DM": 3042,
      "DW": 3043,
      "Der": 3044,
      "Dav": 3045,
      "Dream": 3046,
      "Damn": 3047,
      "Dancing": 3048,
      "EL": 3049,
      "Ef": 3050,
      "Es": 3051,
      "HP": 3052,
      "Hu": 3053,
      "H1N": 3054,
      "IF": 3055,
      "IR": 3056,
      "Kill": 3057,
      "LM": 3058,
      "Last": 3059,
      "Link": 3060,
      "LES": 3061,
      "Lady": 3062,
      "Mis": 3063,
      "PG": 3064,
      "Pat": 3065,
      "Pen": 3066,
      "Pack": 3067,
      "Que": 3068,
      "Ra": 3069,
      "Ry": 3070,
      "Stra": 3071,
      "Sorry": 3072,
      "Sky": 3073,
      "Sports": 3074,
      "TX": 3075,
      "Tig": 3076,
      "Tel": 3077,
      "Tri": 3078,
      "TER": 3079,
      "Touch": 3080,
      "Und": 3081,
      "Val": 3082,
      "WW": 3083,
      "Wr": 3084,
      "Wel": 3085,
      "Ways": 3086,
      "WAS": 3087,
      "[??????": 3088,
      "[???????": 3089,
      "[?????]": 3090,
      "^^": 3091,
      "apo": 3092,
      "alot": 3093,
      "coo": 3094,
      "cation": 3095,
      "during": 3096,
      "eas": 3097,
      "econom": 3098,
      "fill": 3099,
      "gn": 3100,
      "gre": 3101,
      "gay": 3102,
      "gers": 3103,
      "gud": 3104,
      "gress": 3105,
      "games": 3106,
      "hood": 3107,
      "half": 3108,
      "ied": 3109,
      "iet": 3110,
      "ians": 3111,
      "lat": 3112,
      "lunch": 3113,
      "mis": 3114,
      "mot": 3115,
      "ng": 3116,
      "nut": 3117,
      "nie": 3118,
      "nesday": 3119,
      "pon": 3120,
      "pes": 3121,
      "pet": 3122,
      "pot": 3123,
      "qq": 3124,
      "ray": 3125,
      "ram": 3126,
      "sil": 3127,
      "swear": 3128,
      "tall": 3129,
      "touch": 3130,
      "treatment": 3131,
      "vil": 3132,
      "wall": 3133,
      "yell": 3134,
      "invest": 3135,
      "thru": 3136,
      "ero": 3137,
      "reve": 3138,
      "itting": 3139,
      "lling": 3140,
      "ises": 3141,
      "arri": 3142,
      "etc": 3143,
      "lost": 3144,
      "loved": 3145,
      "ically": 3146,
      "iclockwise": 3147,
      "aled": 3148,
      "learn": 3149,
      "chic": 3150,
      "chick": 3151,
      "role": 3152,
      "idence": 3153,
      "beach": 3154,
      "activ": 3155,
      "security": 3156,
      "until": 3157,
      "iginal": 3158,
      "ury": 3159,
      "major": 3160,
      "shy": 3161,
      "shout": 3162,
      "outside": 3163,
      "term": 3164,
      "elt": 3165,
      "!!!!!": 3166,
      "ups": 3167,
      "ries": 3168,
      "uss": 3169,
      "aga": 3170,
      "hoes": 3171,
      "hospital": 3172,
      "ustom": 3173,
      "Only": 3174,
      "nore": 3175,
      "nops": 3176,
      "nosis": 3177,
      "essed": 3178,
      "ummy": 3179,
      "indust": 3180,
      "worst": 3181,
      "Child": 3182,
      "ependent": 3183,
      "brand": 3184,
      "brid": 3185,
      "Invest": 3186,
      "bored": 3187,
      "project": 3188,
      "nah": 3189,
      "knows": 3190,
      "earlier": 3191,
      "YouTu": 3192,
      "INE": 3193,
      "ures": 3194,
      "offers": 3195,
      "office": 3196,
      "LOT": 3197,
      "quite": 3198,
      "quote": 3199,
      "Start": 3200,
      "anymore": 3201,
      "anyway": 3202,
      "ground": 3203,
      "sport": 3204,
      "scared": 3205,
      "starting": 3206,
      "talks": 3207,
      "ooooo": 3208,
      "ATE": 3209,
      "series": 3210,
      "??????????????????????": 3211,
      "mmmm": 3212,
      "buy": 3213,
      "rowman": 3214,
      "desp": 3215,
      "Always": 3216,
      "Album": 3217,
      "shows": 3218,
      "Exe": 3219,
      "Independent": 3220,
      "hhh": 3221,
      "lanes": 3222,
      "iropractor": 3223,
      "Surrey": 3224,
      "resident": 3225,
      "God": 3226,
      "Teen": 3227,
      "Spain": 3228,
      "anced": 3229,
      "MP3": 3230,
      "Prof": 3231,
      "write": 3232,
      "country": 3233,
      "Smart": 3234,
      "given": 3235,
      "Synops": 3236,
      "True": 3237,
      "Tomball": 3238,
      "voc": 3239,
      "stems": 3240,
      "Class": 3241,
      "brother": 3242,
      "slow": 3243,
      "drive": 3244,
      "driving": 3245,
      "efits": 3246,
      "HAVE": 3247,
      "walk": 3248,
      "support": 3249,
      "understand": 3250,
      "polit": 3251,
      "visit": 3252,
      "younger": 3253,
      "Minister": 3254,
      "Polit": 3255,
      "children": 3256,
      "nigga": 3257,
      "limate": 3258,
      "Katie": 3259,
      "factor": 3260,
      "Looking": 3261,
      "After": 3262,
      "SHIT": 3263,
      "Woman": 3264,
      "Women": 3265,
      "busy": 3266,
      "million": 3267,
      "Living": 3268,
      "Miami": 3269,
      "college": 3270,
      "arrested": 3271,
      "Better": 3272,
      "People": 3273,
      "Sounds": 3274,
      "formspring": 3275,
      "Anticlockwise": 3276,
      "Beautiful": 3277,
      "favorite": 3278,
      "Australia": 3279,
      "Wednesday": 3280,
      "elerator": 3281,
      "exactly": 3282,
      "finitely": 3283,
      "Arizona": 3284,
      "Braz": 3285,
      "WORLD": 3286,
      "giggles": 3287,
      "murder": 3288,
      "estival": 3289,
      "3GP": 3290,
      "Africa": 3291,
      "Olym": 3292,
      "Texas": 3293,
      "opportunity": 3294,
      "David": 3295,
      "H1N1": 3296,
      "[???????]": 3297,
      "YouTube": 3298,
      "!.": 3299,
      ".)": 3300,
      "37": 3301,
      "56": 3302,
      "58": 3303,
      "?...": 3304,
      "Aion": 3305,
      "AME": 3306,
      "Awards": 3307,
      "BR": 3308,
      "BY": 3309,
      "Bit": 3310,
      "Bab": 3311,
      "Bowl": 3312,
      "Cou": 3313,
      "Cal": 3314,
      "Cur": 3315,
      "Cop": 3316,
      "Case": 3317,
      "Center": 3318,
      "Clockwise": 3319,
      "Da": 3320,
      "Dat": 3321,
      "Den": 3322,
      "Die": 3323,
      "FB": 3324,
      "Fu": 3325,
      "Far": 3326,
      "Fav": 3327,
      "Games": 3328,
      "HH": 3329,
      "HU": 3330,
      "Hun": 3331,
      "Hum": 3332,
      "Hold": 3333,
      "IP": 3334,
      "J2": 3335,
      "J4": 3336,
      "Jon": 3337,
      "JUST": 3338,
      "Lanc": 3339,
      "LAND": 3340,
      "Leno": 3341,
      "Mat": 3342,
      "Men": 3343,
      "Must": 3344,
      "Mind": 3345,
      "Mount": 3346,
      "Old": 3347,
      "OME": 3348,
      "Pot": 3349,
      "Pass": 3350,
      "Pak": 3351,
      "PLE": 3352,
      "RT": 3353,
      "Sa": 3354,
      "Sam": 3355,
      "Sum": 3356,
      "Sex": 3357,
      "Tayl": 3358,
      "UL": 3359,
      "Van": 3360,
      "Wa": 3361,
      "Wire": 3362,
      "WAY": 3363,
      "aff": 3364,
      "b4": 3365,
      "bing": 3366,
      "bbl": 3367,
      "bank": 3368,
      "cat": 3369,
      "cto": 3370,
      "cop": 3371,
      "cross": 3372,
      "custom": 3373,
      "dle": 3374,
      "die": 3375,
      "daily": 3376,
      "dney": 3377,
      "ech": 3378,
      "fli": 3379,
      "fol": 3380,
      "fool": 3381,
      "fair": 3382,
      "ging": 3383,
      "gal": 3384,
      "gri": 3385,
      "gave": 3386,
      "hun": 3387,
      "hmm": 3388,
      "ik": 3389,
      "iel": 3390,
      "jail": 3391,
      "kers": 3392,
      "kick": 3393,
      "ler": 3394,
      "ling": 3395,
      "lines": 3396,
      "lanta": 3397,
      "mart": 3398,
      "mass": 3399,
      "male": 3400,
      "oes": 3401,
      "oil": 3402,
      "pment": 3403,
      "qot": 3404,
      "rd": 3405,
      "ron": 3406,
      "ride": 3407,
      "sat": 3408,
      "sale": 3409,
      "tag": 3410,
      "whe": 3411,
      "woo": 3412,
      "xP": 3413,
      "inj": 3414,
      "ino": 3415,
      "inch": 3416,
      "inks": 3417,
      "incident": 3418,
      "throw": 3419,
      "anno": 3420,
      "onia": 3421,
      "repre": 3422,
      "sto": 3423,
      "stra": 3424,
      "station": 3425,
      "orrow": 3426,
      "ences": 3427,
      "enjoy": 3428,
      "itter": 3429,
      "ison": 3430,
      "ision": 3431,
      "etail": 3432,
      "lots": 3433,
      "loves": 3434,
      "andy": 3435,
      "ication": 3436,
      "alous": 3437,
      "oop": 3438,
      "oose": 3439,
      "lea": 3440,
      "lee": 3441,
      "veil": 3442,
      "christ": 3443,
      "chiropractic": 3444,
      "church": 3445,
      "ador": 3446,
      "roid": 3447,
      "bel": 3448,
      "bell": 3449,
      "beams": 3450,
      "active": 3451,
      "secret": 3452,
      "unfollow": 3453,
      "som": 3454,
      "entine": 3455,
      "max": 3456,
      "master": 3457,
      "shine": 3458,
      "tern": 3459,
      "area": 3460,
      "onest": 3461,
      "move": 3462,
      "erson": 3463,
      "doe": 3464,
      "imp": 3465,
      "tee": 3466,
      "tele": 3467,
      "poor": 3468,
      "posed": 3469,
      "??????????": 3470,
      "ifer": 3471,
      "comment": 3472,
      "dem": 3473,
      "yours": 3474,
      "tail": 3475,
      "taken": 3476,
      "worry": 3477,
      "appoint": 3478,
      "appreci": 3479,
      "ulous": 3480,
      "Chesh": 3481,
      "cons": 3482,
      "conne": 3483,
      "concer": 3484,
      "condition": 3485,
      "somewhere": 3486,
      "cannot": 3487,
      "prote": 3488,
      "proves": 3489,
      "prolly": 3490,
      "ideas": 3491,
      "ause": 3492,
      "ears": 3493,
      "print": 3494,
      "issa": 3495,
      "witch": 3496,
      "Young": 3497,
      "pper": 3498,
      "track": 3499,
      "safe": 3500,
      "lood": 3501,
      "Street": 3502,
      "grand": 3503,
      "group": 3504,
      "blast": 3505,
      "blue": 3506,
      "ishes": 3507,
      "older": 3508,
      "ESOME": 3509,
      "ailable": 3510,
      "Lose": 3511,
      "Whats": 3512,
      "cheap": 3513,
      "Manager": 3514,
      "TOP": 3515,
      "?????????????????": 3516,
      "???????????????????????": 3517,
      "suit": 3518,
      "Commer": 3519,
      "Common": 3520,
      "ITE": 3521,
      "Nothing": 3522,
      "Develo": 3523,
      "looked": 3524,
      "desk": 3525,
      "caught": 3526,
      "Also": 3527,
      "traveltuesday": 3528,
      "lets": 3529,
      "?!?!": 3530,
      "calls": 3531,
      "telling": 3532,
      "Orissa": 3533,
      "songs": 3534,
      "wont": 3535,
      "doesnt": 3536,
      "Movie": 3537,
      "heads": 3538,
      "kills": 3539,
      "killing": 3540,
      "thinq": 3541,
      "Tell": 3542,
      "launch": 3543,
      "MP4": 3544,
      "hands": 3545,
      "HELL": 3546,
      "Smith": 3547,
      "gives": 3548,
      "Att": 3549,
      "Buy": 3550,
      "jealous": 3551,
      "Someone": 3552,
      "Something": 3553,
      "Systems": 3554,
      "Sydney": 3555,
      "Dont": 3556,
      "aughter": 3557,
      "TION": 3558,
      "Trans": 3559,
      "Tomo": 3560,
      "hello": 3561,
      "voice": 3562,
      "path": 3563,
      "sitting": 3564,
      "shall": 3565,
      "books": 3566,
      "company": 3567,
      "companies": 3568,
      "grammy": 3569,
      "MORE": 3570,
      "walking": 3571,
      "Haiti": 3572,
      "grab": 3573,
      "moment": 3574,
      "PSP": 3575,
      "Okay": 3576,
      "Series": 3577,
      "communic": 3578,
      "building": 3579,
      "Gotta": 3580,
      "papers": 3581,
      "tainment": 3582,
      "leader": 3583,
      "growing": 3584,
      "----------------": 3585,
      "A64": 3586,
      "months": 3587,
      "PDF": 3588,
      "Scott": 3589,
      "banks": 3590,
      "freak": 3591,
      "matter": 3592,
      "reasons": 3593,
      "AGE": 3594,
      "Party": 3595,
      "babe": 3596,
      "popular": 3597,
      "Prime": 3598,
      "appear": 3599,
      "announces": 3600,
      "Author": 3601,
      "related": 3602,
      "AWESOME": 3603,
      "January": 3604,
      "Report": 3605,
      "history": 3606,
      "surprise": 3607,
      "EVERY": 3608,
      "retire": 3609,
      "argeted": 3610,
      "Tonight": 3611,
      "VISIT": 3612,
      "waves": 3613,
      "welcome": 3614,
      "problem": 3615,
      "Association": 3616,
      "Court": 3617,
      "Essex": 3618,
      "Queen": 3619,
      "Under": 3620,
      "[??????]": 3621,
      "LOTRO": 3622,
      "despite": 3623,
      "Synopsis": 3624,
      "Pakistan": 3625,
      "Taylor": 3626,
      "Cheshire": 3627,
      "!\"": 3628,
      "!..": 3629,
      ",?": 3630,
      ",...": 3631,
      "3D": 3632,
      "41": 3633,
      "600": 3634,
      "80": 3635,
      "82": 3636,
      "<<": 3637,
      "==": 3638,
      "AI": 3639,
      "Ap": 3640,
      "Ay": 3641,
      "Ama": 3642,
      "ABC": 3643,
      "A19": 3644,
      "Alex": 3645,
      "Band": 3646,
      "Bol": 3647,
      "BEST": 3648,
      "Cent": 3649,
      "Cast": 3650,
      "Cool": 3651,
      "Creat": 3652,
      "Cold": 3653,
      "CRA": 3654,
      "CNN": 3655,
      "DY": 3656,
      "Dri": 3657,
      "DON": 3658,
      "DEST": 3659,
      "EN": 3660,
      "EX": 3661,
      "End": 3662,
      "Ext": 3663,
      "FE": 3664,
      "Fro": 3665,
      "Fore": 3666,
      "Festival": 3667,
      "GA": 3668,
      "Gra": 3669,
      "GRE": 3670,
      "Gover": 3671,
      "Glee": 3672,
      "Hon": 3673,
      "Hit": 3674,
      "His": 3675,
      "Hot": 3676,
      "Id": 3677,
      "J5": 3678,
      "J6": 3679,
      "Jer": 3680,
      "Jen": 3681,
      "Jew": 3682,
      "J12": 3683,
      "Kind": 3684,
      "KNOW": 3685,
      "Kids": 3686,
      "LS": 3687,
      "Lea": 3688,
      "Little": 3689,
      "Mill": 3690,
      "MON": 3691,
      "Matt": 3692,
      "MMO": 3693,
      "NW": 3694,
      "Never": 3695,
      "Next": 3696,
      "Osc": 3697,
      "PA": 3698,
      "PO": 3699,
      "Port": 3700,
      "Ran": 3701,
      "Sal": 3702,
      "Swi": 3703,
      "Sus": 3704,
      "Sta": 3705,
      "Says": 3706,
      "Sweet": 3707,
      "Saf": 3708,
      "SEE": 3709,
      "Source": 3710,
      "TY": 3711,
      "Tem": 3712,
      "Take": 3713,
      "Tony": 3714,
      "Talk": 3715,
      "Ugh": 3716,
      "Vo": 3717,
      "Vol": 3718,
      "WR": 3719,
      "Wo": 3720,
      "Want": 3721,
      "Wild": 3722,
      "WOW": 3723,
      "ZY": 3724,
      "aut": 3725,
      "bi": 3726,
      "bour": 3727,
      "base": 3728,
      "btw": 3729,
      "blip": 3730,
      "cs": 3731,
      "cin": 3732,
      "cing": 3733,
      "cow": 3734,
      "cro": 3735,
      "cel": 3736,
      "cud": 3737,
      "cru": 3738,
      "ckey": 3739,
      "dan": 3740,
      "dia": 3741,
      "daughter": 3742,
      "equ": 3743,
      "flo": 3744,
      "fro": 3745,
      "file": 3746,
      "gun": 3747,
      "gam": 3748,
      "gur": 3749,
      "gue": 3750,
      "gestion": 3751,
      "hen": 3752,
      "hes": 3753,
      "honey": 3754,
      "honest": 3755,
      "ior": 3756,
      "iest": 3757,
      "ives": 3758,
      "ience": 3759,
      "jk": 3760,
      "jee": 3761,
      "mw": 3762,
      "mic": 3763,
      "mid": 3764,
      "mate": 3765,
      "mbers": 3766,
      "nu": 3767,
      "ners": 3768,
      "pants": 3769,
      "pupp": 3770,
      "pnosis": 3771,
      "qet": 3772,
      "rof": 3773,
      "round": 3774,
      "rul": 3775,
      "ratings": 3776,
      "sme": 3777,
      "sal": 3778,
      "spo": 3779,
      "squ": 3780,
      "spread": 3781,
      "ted": 3782,
      "taste": 3783,
      "ume": 3784,
      "ule": 3785,
      "uation": 3786,
      "vd": 3787,
      "vic": 3788,
      "vote": 3789,
      "wick": 3790,
      "wave": 3791,
      "wich": 3792,
      "xck": 3793,
      "yay": 3794,
      "yummy": 3795,
      "~~": 3796,
      "inv": 3797,
      "inno": 3798,
      "inking": 3799,
      "tha": 3800,
      "eral": 3801,
      "onment": 3802,
      "ouble": 3803,
      "reci": 3804,
      "redu": 3805,
      "recent": 3806,
      "release": 3807,
      "revol": 3808,
      "store": 3809,
      "organ": 3810,
      "orida": 3811,
      "tot": 3812,
      "topic": 3813,
      "iture": 3814,
      "ari": 3815,
      "arter": 3816,
      "oween": 3817,
      "etr": 3818,
      "ico": 3819,
      "icide": 3820,
      "ality": 3821,
      "legs": 3822,
      "vember": 3823,
      "...#": 3824,
      "chal": 3825,
      "chuck": 3826,
      "tired": 3827,
      "forman": 3828,
      "former": 3829,
      "idden": 3830,
      "haps": 3831,
      "eway": 3832,
      "ache": 3833,
      "across": 3834,
      "accept": 3835,
      "seat": 3836,
      "sell": 3837,
      "living": 3838,
      "unes": 3839,
      "unveil": 3840,
      "ignore": 3841,
      "keke": 3842,
      "weep": 3843,
      "weather": 3844,
      "ilar": 3845,
      "enty": 3846,
      "shud": 3847,
      "shower": 3848,
      "olf": 3849,
      "aren": 3850,
      "plying": 3851,
      "plug": 3852,
      "irt": 3853,
      "rian": 3854,
      "uses": 3855,
      "usband": 3856,
      "movies": 3857,
      "asty": 3858,
      "imme": 3859,
      "?????????": 3860,
      "Things": 3861,
      "wash": 3862,
      "nope": 3863,
      "nods": 3864,
      "reep": 3865,
      "button": 3866,
      "common": 3867,
      "comfort": 3868,
      "definitely": 3869,
      "ackle": 3870,
      "worse": 3871,
      "apart": 3872,
      "fects": 3873,
      "fected": 3874,
      "Char": 3875,
      "Chuck": 3876,
      "Chiropractor": 3877,
      "contract": 3878,
      "congestion": 3879,
      "Which": 3880,
      "cos": 3881,
      "REAL": 3882,
      "READ": 3883,
      "bru": 3884,
      "Incre": 3885,
      "bother": 3886,
      "progress": 3887,
      "ctors": 3888,
      "posts": 3889,
      "ains": 3890,
      "management": 3891,
      "Read": 3892,
      "Remix": 3893,
      "Recovery": 3894,
      "aware": 3895,
      "earth": 3896,
      "exp": 3897,
      "asses": 3898,
      "prices": 3899,
      "200": 3900,
      "however": 3901,
      "INATION": 3902,
      "THAN": 3903,
      "trad": 3904,
      "trust": 3905,
      ":))": 3906,
      "election": 3907,
      "quick": 3908,
      "grade": 3909,
      "ohhh": 3910,
      "followed": 3911,
      "ization": 3912,
      "izza": 3913,
      "Been": 3914,
      "Bell": 3915,
      "Because": 3916,
      "Former": 3917,
      "available": 3918,
      "afraid": 3919,
      "msn": 3920,
      "eee": 3921,
      "phy": 3922,
      "phic": 3923,
      "Doctor": 3924,
      "talent": 3925,
      "wouldn": 3926,
      "oooooo": 3927,
      "coun": 3928,
      "couch": 3929,
      "Program": 3930,
      "Probably": 3931,
      "TOO": 3932,
      "watchin": 3933,
      "watched": 3934,
      "ashire": 3935,
      "Compl": 3936,
      "fucking": 3937,
      "USB": 3938,
      "November": 3939,
      "create": 3940,
      "OOL": 3941,
      "bull": 3942,
      "Southern": 3943,
      "design": 3944,
      "Boston": 3945,
      "emp": 3946,
      "Express": 3947,
      "monitor": 3948,
      "letters": 3949,
      "ensive": 3950,
      "videos": 3951,
      "Union": 3952,
      "United": 3953,
      "happens": 3954,
      "Monkey": 3955,
      "lief": 3956,
      "lists": 3957,
      "Most": 3958,
      "Bring": 3959,
      "Advert": 3960,
      "Goes": 3961,
      "ROM": 3962,
      "summer": 3963,
      "Eng": 3964,
      "Enter": 3965,
      "finally": 3966,
      "Price": 3967,
      "writing": 3968,
      "sleeping": 3969,
      "International": 3970,
      "brea": 3971,
      "Tomorrow": 3972,
      "warns": 3973,
      "situation": 3974,
      "A31": 3975,
      "diffic": 3976,
      "charges": 3977,
      "cycling": 3978,
      "inese": 3979,
      "MOST": 3980,
      "haaaa": 3981,
      "event": 3982,
      "events": 3983,
      "plane": 3984,
      "Healthy": 3985,
      "A45": 3986,
      "Supernatural": 3987,
      "hotel": 3988,
      "sooner": 3989,
      "Corn": 3990,
      "burg": 3991,
      "bury": 3992,
      "LIVE": 3993,
      "290": 3994,
      "Breast": 3995,
      "DDDD": 3996,
      "fuckin": 3997,
      "Congr": 3998,
      "arently": 3999,
      "ALLY": 4000,
      "____": 4001,
      "Design": 4002,
      "Girls": 4003,
      "essional": 4004,
      "drop": 4005,
      "fresh": 4006,
      "snap": 4007,
      "Univers": 4008,
      "Success": 4009,
      "promise": 4010,
      "urniture": 4011,
      "Jobs": 4012,
      "budget": 4013,
      "football": 4014,
      "Download": 4015,
      "July": 4016,
      "Telegraph": 4017,
      "Torrent": 4018,
      "Vegas": 4019,
      "science": 4020,
      "expected": 4021,
      "cleaning": 4022,
      "Omg": 4023,
      "jersey": 4024,
      "Broadcasting": 4025,
      "Family": 4026,
      "Renew": 4027,
      "Science": 4028,
      "suspe": 4029,
      "possible": 4030,
      "Microsoft": 4031,
      "College": 4032,
      "Journalism": 4033,
      "literally": 4034,
      "piece": 4035,
      "including": 4036,
      "Friends": 4037,
      "General": 4038,
      "[????]": 4039,
      "laptop": 4040,
      "released": 4041,
      "claims": 4042,
      "president": 4043,
      "Tiger": 4044,
      "Olympics": 4045,
      "BitTorrent": 4046,
      "Diego": 4047,
      "Lancashire": 4048,
      "annoying": 4049,
      "etails": 4050,
      "leaving": 4051,
      "DESTINATION": 4052,
      "GREAT": 4053,
      "formance": 4054,
      "!:": 4055,
      "'.": 4056,
      "360": 4057,
      "4th": 4058,
      "57": 4059,
      "87": 4060,
      "821": 4061,
      "=[": 4062,
      "AB": 4063,
      "Ath": 4064,
      "Ash": 4065,
      "Aud": 4066,
      "A50": 4067,
      "AIM": 4068,
      "Avat": 4069,
      "Bi": 4070,
      "Bon": 4071,
      "Bob": 4072,
      "Book": 4073,
      "Bang": 4074,
      "Bank": 4075,
      "Birthday": 4076,
      "Cli": 4077,
      "Chair": 4078,
      "Cute": 4079,
      "Cape": 4080,
      "DC": 4081,
      "Dal": 4082,
      "Dad": 4083,
      "Dra": 4084,
      "Days": 4085,
      "DER": 4086,
      "El": 4087,
      "Eat": 4088,
      "FM": 4089,
      "Fr": 4090,
      "Fer": 4091,
      "Fed": 4092,
      "Fast": 4093,
      "Four": 4094,
      "Flu": 4095,
      "Fair": 4096,
      "FUN": 4097,
      "GG": 4098,
      "Glo": 4099,
      "Give": 4100,
      "Gold": 4101,
      "Game": 4102,
      "Grid": 4103,
      "Glad": 4104,
      "GET": 4105,
      "Gaga": 4106,
      "Hack": 4107,
      "Hist": 4108,
      "IO": 4109,
      "IVE": 4110,
      "Iran": 4111,
      "J7": 4112,
      "JO": 4113,
      "Jh": 4114,
      "Jay": 4115,
      "J15": 4116,
      "Jones": 4117,
      "Kar": 4118,
      "Kore": 4119,
      "La": 4120,
      "Lou": 4121,
      "Low": 4122,
      "Land": 4123,
      "Lma": 4124,
      "Lab": 4125,
      "MB": 4126,
      "MU": 4127,
      "Mr": 4128,
      "Mir": 4129,
      "Mart": 4130,
      "Mem": 4131,
      "Mary": 4132,
      "NI": 4133,
      "OT": 4134,
      "Pet": 4135,
      "Pic": 4136,
      "Pac": 4137,
      "Peter": 4138,
      "RY": 4139,
      "Ris": 4140,
      "Rom": 4141,
      "Round": 4142,
      "SC": 4143,
      "Sn": 4144,
      "Sand": 4145,
      "Send": 4146,
      "Save": 4147,
      "Soft": 4148,
      "Sony": 4149,
      "Still": 4150,
      "Sonia": 4151,
      "TS": 4152,
      "Ta": 4153,
      "Tal": 4154,
      "Tot": 4155,
      "Town": 4156,
      "Twit": 4157,
      "Tru": 4158,
      "Us": 4159,
      "Vir": 4160,
      "WA": 4161,
      "WE": 4162,
      "Wat": 4163,
      "WMA": 4164,
      "Wats": 4165,
      "XD": 4166,
      "Ye": 4167,
      "Yo": 4168,
      "ax": 4169,
      "alo": 4170,
      "aunt": 4171,
      "bis": 4172,
      "bare": 4173,
      "bra": 4174,
      "bate": 4175,
      "bie": 4176,
      "bail": 4177,
      "bang": 4178,
      "block": 4179,
      "cies": 4180,
      "cash": 4181,
      "creep": 4182,
      "dig": 4183,
      "dale": 4184,
      "digital": 4185,
      "dict": 4186,
      "emo": 4187,
      "eff": 4188,
      "fy": 4189,
      "fle": 4190,
      "fir": 4191,
      "fans": 4192,
      "figh": 4193,
      "flex": 4194,
      "fashion": 4195,
      "felt": 4196,
      "fxck": 4197,
      "gat": 4198,
      "gang": 4199,
      "hits": 4200,
      "houston": 4201,
      "hmmm": 4202,
      "jay": 4203,
      "ko": 4204,
      "ket": 4205,
      "kew": 4206,
      "kiss": 4207,
      "lame": 4208,
      "mes": 4209,
      "mum": 4210,
      "mul": 4211,
      "mount": 4212,
      "noo": 4213,
      "nam": 4214,
      "none": 4215,
      "nomin": 4216,
      "pen": 4217,
      "phe": 4218,
      "pound": 4219,
      "pill": 4220,
      "pack": 4221,
      "pons": 4222,
      "qh": 4223,
      "rite": 4224,
      "rick": 4225,
      "sigh": 4226,
      "slight": 4227,
      "spring": 4228,
      "sense": 4229,
      "sizes": 4230,
      "tn": 4231,
      "tor": 4232,
      "tle": 4233,
      "twi": 4234,
      "utions": 4235,
      "wro": 4236,
      "wag": 4237,
      "yur": 4238,
      "zi": 4239,
      "zance": 4240,
      "inde": 4241,
      "info": 4242,
      "thx": 4243,
      "thro": 4244,
      "third": 4245,
      "ert": 4246,
      "errill": 4247,
      "..#": 4248,
      "rees": 4249,
      "reli": 4250,
      "reach": 4251,
      "recover": 4252,
      "recovery": 4253,
      "research": 4254,
      "respect": 4255,
      "atus": 4256,
      "attract": 4257,
      "stab": 4258,
      "states": 4259,
      "??..": 4260,
      "org": 4261,
      "ordin": 4262,
      "orders": 4263,
      "ena": 4264,
      "enna": 4265,
      "tom": 4266,
      "iton": 4267,
      "itty": 4268,
      "aring": 4269,
      "aries": 4270,
      "member": 4271,
      "etto": 4272,
      "heat": 4273,
      "loc": 4274,
      "alright": 4275,
      "leep": 4276,
      "offe": 4277,
      "chine": 4278,
      "chair": 4279,
      "ads": 4280,
      "adore": 4281,
      "tight": 4282,
      "forth": 4283,
      "iding": 4284,
      "becomes": 4285,
      "sea": 4286,
      "sec": 4287,
      "sem": 4288,
      "lies": 4289,
      "aminer": 4290,
      "weight": 4291,
      "whu": 4292,
      "ura": 4293,
      "shad": 4294,
      "outs": 4295,
      "eling": 4296,
      "plans": 4297,
      "plants": 4298,
      "rap": 4299,
      "ussy": 4300,
      "usually": 4301,
      "moon": 4302,
      "moves": 4303,
      "nowplaying": 4304,
      "neur": 4305,
      "ague": 4306,
      "hockey": 4307,
      "ustr": 4308,
      "import": 4309,
      "teach": 4310,
      "temp": 4311,
      "points": 4312,
      "?????????????": 4313,
      "wasnt": 4314,
      "tional": 4315,
      "illy": 4316,
      "antage": 4317,
      "notes": 4318,
      "timeline": 4319,
      "goal": 4320,
      "deli": 4321,
      "deck": 4322,
      "opens": 4323,
      "tape": 4324,
      "arded": 4325,
      "ulk": 4326,
      "conver": 4327,
      "ssss": 4328,
      "RED": 4329,
      "REALLY": 4330,
      "brown": 4331,
      "played": 4332,
      "players": 4333,
      "theres": 4334,
      "ctric": 4335,
      "train": 4336,
      "mane": 4337,
      "manage": 4338,
      "manager": 4339,
      "Record": 4340,
      "goodie": 4341,
      "Newspapers": 4342,
      "Newsletters": 4343,
      "exam": 4344,
      "Weblog": 4345,
      "geon": 4346,
      "proud": 4347,
      "tooth": 4348,
      "issues": 4349,
      "ghetto": 4350,
      "acts": 4351,
      "arkhand": 4352,
      "ppin": 4353,
      "ppers": 4354,
      "THES": 4355,
      "save": 4356,
      "cially": 4357,
      "icky": 4358,
      "perfect": 4359,
      "Stay": 4360,
      "States": 4361,
      "udes": 4362,
      "---": 4363,
      "grad": 4364,
      "grown": 4365,
      "closer": 4366,
      "ishing": 4367,
      "smart": 4368,
      "aked": 4369,
      "scream": 4370,
      "scape": 4371,
      "ohh": 4372,
      "ESS": 4373,
      "bert": 4374,
      "nings": 4375,
      "starts": 4376,
      "avi": 4377,
      "reader": 4378,
      "ffici": 4379,
      "minor": 4380,
      "minions": 4381,
      "ministr": 4382,
      "OUS": 4383,
      "cheer": 4384,
      "cheese": 4385,
      "obs": 4386,
      "comedy": 4387,
      "serv": 4388,
      "????????????????????": 4389,
      "?????????????????????": 4390,
      "sugar": 4391,
      "suicide": 4392,
      "twice": 4393,
      "speaking": 4394,
      "puters": 4395,
      "Seven": 4396,
      "cream": 4397,
      "feels": 4398,
      "lookin": 4399,
      "MAR": 4400,
      "built": 4401,
      "Working": 4402,
      "Boy": 4403,
      "Medical": 4404,
      "MER": 4405,
      "Alone": 4406,
      "helped": 4407,
      "Examiner": 4408,
      "biggest": 4409,
      "Cancer": 4410,
      "rugs": 4411,
      "useum": 4412,
      "M61": 4413,
      "format": 4414,
      "rank": 4415,
      "huge": 4416,
      "results": 4417,
      "Advent": 4418,
      "drinking": 4419,
      "aches": 4420,
      "sumtn": 4421,
      "keeps": 4422,
      "Engine": 4423,
      "Road": 4424,
      "NEVER": 4425,
      "basket": 4426,
      "joined": 4427,
      "crack": 4428,
      "handle": 4429,
      "restaur": 4430,
      "jects": 4431,
      "Traffic": 4432,
      "south": 4433,
      "hopefully": 4434,
      "ARS": 4435,
      "Clean": 4436,
      "SEX": 4437,
      "ladies": 4438,
      "TIC": 4439,
      "TIPS": 4440,
      "Trust": 4441,
      "breast": 4442,
      "ounge": 4443,
      "ounces": 4444,
      "Group": 4445,
      "tried": 4446,
      "Cost": 4447,
      "Outlook": 4448,
      "Plat": 4449,
      "focus": 4450,
      "winning": 4451,
      "charac": 4452,
      "Accelerator": 4453,
      "wearing": 4454,
      "BET": 4455,
      "flow": 4456,
      "mention": 4457,
      "often": 4458,
      "planning": 4459,
      "content": 4460,
      "regular": 4461,
      "Haha": 4462,
      "checked": 4463,
      "A47": 4464,
      "3333": 4465,
      "Colon": 4466,
      "yyyy": 4467,
      "community": 4468,
      "Blacktown": 4469,
      "Permission": 4470,
      "WITH": 4471,
      "born": 4472,
      "image": 4473,
      "images": 4474,
      "Break": 4475,
      "signs": 4476,
      "signup": 4477,
      "costs": 4478,
      "difference": 4479,
      "hype": 4480,
      "ripkew": 4481,
      "increase": 4482,
      "growth": 4483,
      "attacked": 4484,
      "Desk": 4485,
      "Merry": 4486,
      "estershire": 4487,
      "confused": 4488,
      "extreme": 4489,
      "Agency": 4490,
      "Looks": 4491,
      "Studio": 4492,
      "hearts": 4493,
      "screenshots": 4494,
      "Berry": 4495,
      "Capital": 4496,
      "NYC": 4497,
      "message": 4498,
      "wifey": 4499,
      "AGAIN": 4500,
      "View": 4501,
      "Florida": 4502,
      "Japanese": 4503,
      "strong": 4504,
      "Listening": 4505,
      "campa": 4506,
      "developers": 4507,
      "Fresh": 4508,
      "Keywords": 4509,
      "Weekend": 4510,
      "Magic": 4511,
      "Strate": 4512,
      "continue": 4513,
      "expect": 4514,
      "truly": 4515,
      "Angel": 4516,
      "Grammys": 4517,
      "Crazy": 4518,
      "Earth": 4519,
      "Midlands": 4520,
      "Senate": 4521,
      "various": 4522,
      "respon": 4523,
      "delayed": 4524,
      "EEEEEEEE": 4525,
      "Film": 4526,
      "Laser": 4527,
      "Official": 4528,
      "Walmart": 4529,
      "tickets": 4530,
      "vironment": 4531,
      "advantage": 4532,
      "lucky": 4533,
      "Holiday": 4534,
      "Paul": 4535,
      "Woods": 4536,
      "GUIDE": 4537,
      "Massage": 4538,
      "Psychic": 4539,
      "dirty": 4540,
      "fantastic": 4541,
      "returns": 4542,
      "cussion": 4543,
      "County": 4544,
      "LMFA": 4545,
      "Misha": 4546,
      "Penzance": 4547,
      "Ryan": 4548,
      "Valentine": 4549,
      "apolog": 4550,
      "residents": 4551,
      "Professional": 4552,
      "formspringme": 4553,
      "Brazil": 4554,
      "Baby": 4555,
      "repreneur": 4556,
      "straight": 4557,
      "christmas": 4558,
      "appointed": 4559,
      "Attacks": 4560,
      "Amazing": 4561,
      "Graphic": 4562,
      "Honiton": 4563,
      "Swift": 4564,
      "floor": 4565,
      "etrust": 4566,
      "England": 4567,
      "difficult": 4568,
      "University": 4569,
      "8217": 4570,
      "Avatar": 4571,
      "Jharkhand": 4572,
      "Pacific": 4573,
      "wrote": 4574,
      "offee": 4575,
      "ripkewetrust": 4576,
      "\"?": 4577,
      "',": 4578,
      "(;": 4579,
      "),": 4580,
      ".):": 4581,
      "2day": 4582,
      "6th": 4583,
      "79": 4584,
      "85": 4585,
      "90": 4586,
      "=)": 4587,
      "AU": 4588,
      "AID": 4589,
      "Alive": 4590,
      "A27": 4591,
      "BJ": 4592,
      "Bat": 4593,
      "Bree": 4594,
      "BLA": 4595,
      "BAD": 4596,
      "Battle": 4597,
      "Bitch": 4598,
      "Budd": 4599,
      "Brian": 4600,
      "CL": 4601,
      "Cr": 4602,
      "Cas": 4603,
      "Cro": 4604,
      "Cig": 4605,
      "Cri": 4606,
      "Cab": 4607,
      "Cry": 4608,
      "Cure": 4609,
      "Cover": 4610,
      "CON": 4611,
      "Coun": 4612,
      "Cross": 4613,
      "Cali": 4614,
      "Dep": 4615,
      "Dist": 4616,
      "Ev": 4617,
      "Ell": 4618,
      "Ent": 4619,
      "Even": 4620,
      "Edin": 4621,
      "ENT": 4622,
      "Ecommerce": 4623,
      "FI": 4624,
      "Fle": 4625,
      "Fra": 4626,
      "Fab": 4627,
      "Found": 4628,
      "Fant": 4629,
      "FRE": 4630,
      "FOU": 4631,
      "Future": 4632,
      "Farm": 4633,
      "Fashion": 4634,
      "FROM": 4635,
      "Ga": 4636,
      "Gor": 4637,
      "Gun": 4638,
      "Gard": 4639,
      "Grow": 4640,
      "GOOD": 4641,
      "HC": 4642,
      "HI": 4643,
      "Hen": 4644,
      "Hand": 4645,
      "Had": 4646,
      "Hil": 4647,
      "Hill": 4648,
      "Hour": 4649,
      "HIS": 4650,
      "HBO": 4651,
      "Hmmm": 4652,
      "IA": 4653,
      "Ice": 4654,
      "Icon": 4655,
      "Ips": 4656,
      "J3": 4657,
      "J8": 4658,
      "J9": 4659,
      "JA": 4660,
      "J20": 4661,
      "J18": 4662,
      "J21": 4663,
      "J22": 4664,
      "Jared": 4665,
      "KS": 4666,
      "Ko": 4667,
      "KING": 4668,
      "Khan": 4669,
      "Kitty": 4670,
      "Lar": 4671,
      "Lad": 4672,
      "LAN": 4673,
      "ML": 4674,
      "Mal": 4675,
      "Mam": 4676,
      "Mel": 4677,
      "Mess": 4678,
      "Mix": 4679,
      "Many": 4680,
      "Much": 4681,
      "Mother": 4682,
      "Mich": 4683,
      "Mike": 4684,
      "MOR": 4685,
      "M27": 4686,
      "Makes": 4687,
      "NL": 4688,
      "NBC": 4689,
      "Nigg": 4690,
      "Natural": 4691,
      "Ox": 4692,
      "Oper": 4693,
      "Octo": 4694,
      "PN": 4695,
      "PP": 4696,
      "PY": 4697,
      "Por": 4698,
      "Pad": 4699,
      "Pun": 4700,
      "Pur": 4701,
      "Pra": 4702,
      "Prom": 4703,
      "Pop": 4704,
      "Pres": 4705,
      "Preg": 4706,
      "Rs": 4707,
      "Ray": 4708,
      "Rail": 4709,
      "SD": 4710,
      "SU": 4711,
      "Side": 4712,
      "SER": 4713,
      "SAY": 4714,
      "SHE": 4715,
      "Sub": 4716,
      "SHO": 4717,
      "Swine": 4718,
      "Shoes": 4719,
      "TB": 4720,
      "TP": 4721,
      "Twi": 4722,
      "Test": 4723,
      "Tho": 4724,
      "Tran": 4725,
      "TED": 4726,
      "Teach": 4727,
      "Takes": 4728,
      "Targeted": 4729,
      "U2": 4730,
      "Ul": 4731,
      "Ur": 4732,
      "Using": 4733,
      "VAL": 4734,
      "Wy": 4735,
      "Wall": 4736,
      "WOO": 4737,
      "Wars": 4738,
      "Wake": 4739,
      "Wife": 4740,
      "Wilt": 4741,
      "YE": 4742,
      "Zune": 4743,
      "ae": 4744,
      "aks": 4745,
      "ault": 4746,
      "bc": 4747,
      "bal": 4748,
      "bac": 4749,
      "bun": 4750,
      "bine": 4751,
      "biz": 4752,
      "bike": 4753,
      "bunch": 4754,
      "bomb": 4755,
      "cup": 4756,
      "cir": 4757,
      "coll": 4758,
      "cess": 4759,
      "cnt": 4760,
      "cats": 4761,
      "cture": 4762,
      "climate": 4763,
      "candy": 4764,
      "dre": 4765,
      "dest": 4766,
      "dist": 4767,
      "dats": 4768,
      "danc": 4769,
      "dates": 4770,
      "deter": 4771,
      "damm": 4772,
      "dumb": 4773,
      "dudes": 4774,
      "eh": 4775,
      "effici": 4776,
      "fh": 4777,
      "fm": 4778,
      "fur": 4779,
      "ffordshire": 4780,
      "furniture": 4781,
      "goo": 4782,
      "gent": 4783,
      "gold": 4784,
      "gift": 4785,
      "hra": 4786,
      "hrs": 4787,
      "iT": 4788,
      "ji": 4789,
      "journal": 4790,
      "jump": 4791,
      "ka": 4792,
      "kia": 4793,
      "kicks": 4794,
      "lately": 4795,
      "mall": 4796,
      "mish": 4797,
      "mama": 4798,
      "multi": 4799,
      "mier": 4800,
      "nin": 4801,
      "nant": 4802,
      "nation": 4803,
      "nia": 4804,
      "nasty": 4805,
      "pat": 4806,
      "pit": 4807,
      "park": 4808,
      "punch": 4809,
      "packing": 4810,
      "rm": 4811,
      "rad": 4812,
      "rish": 4813,
      "rise": 4814,
      "ronic": 4815,
      "sam": 4816,
      "swi": 4817,
      "sens": 4818,
      "skin": 4819,
      "sky": 4820,
      "sclerosis": 4821,
      "source": 4822,
      "swine": 4823,
      "switch": 4824,
      "tis": 4825,
      "tro": 4826,
      "tour": 4827,
      "tfordshire": 4828,
      "tackle": 4829,
      "uh": 4830,
      "ux": 4831,
      "uval": 4832,
      "vas": 4833,
      "vac": 4834,
      "vast": 4835,
      "vard": 4836,
      "vate": 4837,
      "waste": 4838,
      "yl": 4839,
      "yr": 4840,
      "yer": 4841,
      "yard": 4842,
      "zlo": 4843,
      "ini": 4844,
      "inum": 4845,
      "insp": 4846,
      "information": 4847,
      "thy": 4848,
      "thursday": 4849,
      "erm": 4850,
      "ering": 4851,
      "anne": 4852,
      "anim": 4853,
      "anger": 4854,
      "onto": 4855,
      "rem": 4856,
      "requ": 4857,
      "reven": 4858,
      "resc": 4859,
      "reland": 4860,
      "request": 4861,
      "ators": 4862,
      "stit": 4863,
      "sters": 4864,
      "stant": 4865,
      "stress": 4866,
      "stream": 4867,
      "stuck": 4868,
      "street": 4869,
      "ingle": 4870,
      "ingers": 4871,
      "ington": 4872,
      "original": 4873,
      "ene": 4874,
      "enger": 4875,
      "topl": 4876,
      "itar": 4877,
      "itness": 4878,
      "isis": 4879,
      "arti": 4880,
      "arks": 4881,
      "arms": 4882,
      "esy": 4883,
      "meal": 4884,
      "metal": 4885,
      "metho": 4886,
      "members": 4887,
      "owers": 4888,
      "edge": 4889,
      "editing": 4890,
      "etti": 4891,
      "heck": 4892,
      "lolol": 4893,
      "loss": 4894,
      "ases": 4895,
      "asking": 4896,
      "asminions": 4897,
      "icy": 4898,
      "vey": 4899,
      "chol": 4900,
      "chise": 4901,
      "channel": 4902,
      "choose": 4903,
      "adm": 4904,
      "advert": 4905,
      "addition": 4906,
      "rop": 4907,
      "fornia": 4908,
      "idi": 4909,
      "idays": 4910,
      "bein": 4911,
      "begin": 4912,
      "hall": 4913,
      "havent": 4914,
      "aco": 4915,
      "actions": 4916,
      "seme": 4917,
      "section": 4918,
      "seven": 4919,
      "lied": 4920,
      "liam": 4921,
      "oting": 4922,
      "otic": 4923,
      "igan": 4924,
      "igher": 4925,
      "allow": 4926,
      "veral": 4927,
      "verages": 4928,
      "ila": 4929,
      "utely": 4930,
      "ental": 4931,
      "maa": 4932,
      "main": 4933,
      "makers": 4934,
      "machal": 4935,
      "ione": 4936,
      "shore": 4937,
      "shirt": 4938,
      "ereal": 4939,
      "plat": 4940,
      "plant": 4941,
      "plate": 4942,
      "plenty": 4943,
      "rier": 4944,
      "rial": 4945,
      "river": 4946,
      "abs": 4947,
      "absol": 4948,
      "ability": 4949,
      "usion": 4950,
      "users": 4951,
      "lyn": 4952,
      "model": 4953,
      "motiv": 4954,
      "within": 4955,
      "agers": 4956,
      "doll": 4957,
      "doch": 4958,
      "doors": 4959,
      "peace": 4960,
      "asted": 4961,
      "Ther": 4962,
      "Through": 4963,
      "These": 4964,
      "ights": 4965,
      "cei": 4966,
      "cember": 4967,
      "Once": 4968,
      "noon": 4969,
      "iff": 4970,
      "likely": 4971,
      "ends": 4972,
      "endar": 4973,
      "essential": 4974,
      "god": 4975,
      "computers": 4976,
      "dep": 4977,
      "oper": 4978,
      "option": 4979,
      "options": 4980,
      "umbl": 4981,
      "takin": 4982,
      "apy": 4983,
      "cked": 4984,
      "Chad": 4985,
      "Chill": 4986,
      "Change": 4987,
      "Chief": 4988,
      "Chinese": 4989,
      "sss": 4990,
      "Whit": 4991,
      "somethin": 4992,
      "cancer": 4993,
      "canada": 4994,
      "tual": 4995,
      "tures": 4996,
      "bron": 4997,
      "brush": 4998,
      "bruary": 4999,
      "Into": 5000,
      "plays": 5001,
      "proper": 5002,
      "protest": 5003,
      "1000": 5004,
      "training": 5005,
      "inkripkewetrust": 5006,
      "Reason": 5007,
      "Relief": 5008,
      "award": 5009,
      "awake": 5010,
      ".......": 5011,
      "owners": 5012,
      "exe": 5013,
      "extract": 5014,
      "except": 5015,
      "assault": 5016,
      "Website": 5017,
      "price": 5018,
      "2011": 5019,
      "ghan": 5020,
      "Youth": 5021,
      "IND": 5022,
      "ured": 5023,
      "click": 5024,
      "aaa": 5025,
      "trans": 5026,
      "trade": 5027,
      ":)))": 5028,
      "pret": 5029,
      "saf": 5030,
      "Consider": 5031,
      "LOUS": 5032,
      "quis": 5033,
      "Stor": 5034,
      "ored": 5035,
      "pson": 5036,
      "udge": 5037,
      "thinkin": 5038,
      "Andhra": 5039,
      "span": 5040,
      "scri": 5041,
      "scary": 5042,
      "whenever": 5043,
      "berry": 5044,
      "Bee": 5045,
      "Believe": 5046,
      "veland": 5047,
      "Force": 5048,
      "iley": 5049,
      "Howard": 5050,
      "tsdale": 5051,
      "dern": 5052,
      "ANG": 5053,
      "mini": 5054,
      "minal": 5055,
      "minister": 5056,
      "minute": 5057,
      "OUST": 5058,
      "chest": 5059,
      "phen": 5060,
      "Dog": 5061,
      "everytime": 5062,
      "couver": 5063,
      "coupon": 5064,
      "Proble": 5065,
      "Project": 5066,
      "Island": 5067,
      "services": 5068,
      "ookie": 5069,
      "worked": 5070,
      "sucks": 5071,
      "Comes": 5072,
      "Compress": 5073,
      "helps": 5074,
      "ITAL": 5075,
      "THEN": 5076,
      "THER": 5077,
      "Nokia": 5078,
      "spell": 5079,
      "viol": 5080,
      "Dead": 5081,
      "Demo": 5082,
      "crew": 5083,
      "credit": 5084,
      "MAS": 5085,
      "resses": 5086,
      "Soul": 5087,
      "powerful": 5088,
      "LEE": 5089,
      "Word": 5090,
      "Boss": 5091,
      "Making": 5092,
      "Major": 5093,
      "Machine": 5094,
      "Altern": 5095,
      "couldn": 5096,
      "Exper": 5097,
      "Extract": 5098,
      "Shi": 5099,
      "bigger": 5100,
      "interview": 5101,
      "reality": 5102,
      "realized": 5103,
      "Army": 5104,
      "Around": 5105,
      "Indust": 5106,
      "afternoon": 5107,
      "Solutions": 5108,
      "monday": 5109,
      "aterial": 5110,
      "rug": 5111,
      "yah": 5112,
      "tells": 5113,
      "Guess": 5114,
      "Organ": 5115,
      "corner": 5116,
      "hhhh": 5117,
      "selves": 5118,
      "Phys": 5119,
      "died": 5120,
      "wake": 5121,
      "itted": 5122,
      "Moving": 5123,
      "Movies": 5124,
      "schools": 5125,
      "resist": 5126,
      "Question": 5127,
      "frustr": 5128,
      "norm": 5129,
      "medical": 5130,
      "drown": 5131,
      "famili": 5132,
      "publ": 5133,
      "apparently": 5134,
      "ASE": 5135,
      "ROT": 5136,
      "fake": 5137,
      "talked": 5138,
      "Thanksgiving": 5139,
      "CKS": 5140,
      "Enjoy": 5141,
      "Ask": 5142,
      "Asian": 5143,
      "NET": 5144,
      "Space": 5145,
      "Sunshine": 5146,
      "finna": 5147,
      "join": 5148,
      "lake": 5149,
      "lazy": 5150,
      "counting": 5151,
      "Smh": 5152,
      "Atlanta": 5153,
      "Bull": 5154,
      "Sometimes": 5155,
      "Training": 5156,
      "Trailer": 5157,
      "sleepy": 5158,
      "Powerful": 5159,
      "trial": 5160,
      "warm": 5161,
      "Neck": 5162,
      "Place": 5163,
      "data": 5164,
      "A38": 5165,
      "Click": 5166,
      "cuts": 5167,
      "heyy": 5168,
      "effective": 5169,
      "laughin": 5170,
      "COMP": 5171,
      "Everybody": 5172,
      "Himachal": 5173,
      "turned": 5174,
      "HAHA": 5175,
      "marks": 5176,
      "queen": 5177,
      "rence": 5178,
      "Heroes": 5179,
      "Hertfordshire": 5180,
      "lmfaoo": 5181,
      "grabs": 5182,
      "kinds": 5183,
      "FABU": 5184,
      "tests": 5185,
      "hehehe": 5186,
      "Edition": 5187,
      "Following": 5188,
      "FollowFriday": 5189,
      "ugly": 5190,
      "Active": 5191,
      "Color": 5192,
      "favour": 5193,
      "Clearwire": 5194,
      "Services": 5195,
      "facebook": 5196,
      "Brother": 5197,
      "Josh": 5198,
      "Perhaps": 5199,
      "WILL": 5200,
      "boring": 5201,
      "bargain": 5202,
      "imagine": 5203,
      "village": 5204,
      "atives": 5205,
      "aaaaaaaa": 5206,
      "ictly": 5207,
      "Warwick": 5208,
      "limit": 5209,
      "TEN": 5210,
      "TEX": 5211,
      "WHY": 5212,
      "color": 5213,
      "column": 5214,
      "Desper": 5215,
      "FLV": 5216,
      "homo": 5217,
      "homie": 5218,
      "fortun": 5219,
      "nearly": 5220,
      "Again": 5221,
      "BACK": 5222,
      "Stuff": 5223,
      "TWEE": 5224,
      "rrr": 5225,
      "society": 5226,
      "rainbow": 5227,
      "screenshot": 5228,
      "Needs": 5229,
      "Scottsdale": 5230,
      "Afghan": 5231,
      "SOME": 5232,
      "ONEY": 5233,
      "Barrowman": 5234,
      "Haaa": 5235,
      "Rights": 5236,
      "cellent": 5237,
      "Anyone": 5238,
      "cried": 5239,
      "direct": 5240,
      "dreams": 5241,
      "roller": 5242,
      "officer": 5243,
      "Benefits": 5244,
      "Danish": 5245,
      "holiday": 5246,
      "solid": 5247,
      "ships": 5248,
      "profit": 5249,
      "downloading": 5250,
      "Hypnosis": 5251,
      "Juice": 5252,
      "Stock": 5253,
      "Reviews": 5254,
      "happened": 5255,
      "announced": 5256,
      "Check": 5257,
      "February": 5258,
      "Murdoch": 5259,
      "Magaz": 5260,
      "Missing": 5261,
      "porn": 5262,
      "accused": 5263,
      "wireless": 5264,
      "shopping": 5265,
      "continues": 5266,
      "Announces": 5267,
      "Metro": 5268,
      "chillin": 5269,
      "istrict": 5270,
      "Boxes": 5271,
      "Franchise": 5272,
      "Laszlo": 5273,
      "Learn": 5274,
      "Tweets": 5275,
      "Wonder": 5276,
      "creating": 5277,
      "tlkn": 5278,
      "storm": 5279,
      "advanced": 5280,
      "Production": 5281,
      "Britain": 5282,
      "German": 5283,
      "Images": 5284,
      "Singh": 5285,
      "Support": 5286,
      "doubt": 5287,
      "dunno": 5288,
      "horri": 5289,
      "weeks": 5290,
      "considered": 5291,
      "experience": 5292,
      "Beyonce": 5293,
      "turbine": 5294,
      "turbines": 5295,
      "provided": 5296,
      "Halloween": 5297,
      "Intel": 5298,
      "PLACE": 5299,
      "PLACES": 5300,
      "Trying": 5301,
      "fixed": 5302,
      "trending": 5303,
      "retch": 5304,
      "position": 5305,
      "economic": 5306,
      "investment": 5307,
      "shyt": 5308,
      "shoutout": 5309,
      "Children": 5310,
      "sports": 5311,
      "vocate": 5312,
      "Full": 5313,
      "Vancouver": 5314,
      "Wireless": 5315,
      "customer": 5316,
      "stock": 5317,
      "adorable": 5318,
      "teeth": 5319,
      "demand": 5320,
      "Commerce": 5321,
      "Development": 5322,
      "Central": 5323,
      "Drive": 5324,
      "Extended": 5325,
      "Frost": 5326,
      "Jersey": 5327,
      "Staffordshire": 5328,
      "middle": 5329,
      "rofl": 5330,
      "recently": 5331,
      "totally": 5332,
      "chuckles": 5333,
      "Incredible": 5334,
      "A453": 5335,
      "Cornwall": 5336,
      "Congrats": 5337,
      "Athlet": 5338,
      "Ashley": 5339,
      "History": 5340,
      "Lmao": 5341,
      "barely": 5342,
      "slightly": 5343,
      "important": 5344,
      "converter": 5345,
      "basketball": 5346,
      "Desktop": 5347,
      "campaign": 5348,
      "vironmental": 5349,
      "BLACK": 5350,
      "California": 5351,
      "Entrepreneur": 5352,
      "Ipswich": 5353,
      "Ladies": 5354,
      "Michigan": 5355,
      "October": 5356,
      "Promote": 5357,
      "Wiltshire": 5358,
      "mishasminions": 5359,
      "stantly": 5360,
      "topless": 5361,
      "liament": 5362,
      "absolutely": 5363,
      "FABULOUS": 5364,
      "'?": 5365,
      "*?": 5366,
      "020": 5367,
      "120": 5368,
      "2night": 5369,
      "2morrow": 5370,
      "64": 5371,
      "7th": 5372,
      "8000": 5373,
      "832": 5374,
      "97": 5375,
      "9th": 5376,
      ":'": 5377,
      ":-": 5378,
      ":]": 5379,
      "<>": 5380,
      "A5": 5381,
      "Ak": 5382,
      "Ahaha": 5383,
      "A40": 5384,
      "A21": 5385,
      "A22": 5386,
      "Auss": 5387,
      "Bor": 5388,
      "Bur": 5389,
      "Bout": 5390,
      "Bir": 5391,
      "Bag": 5392,
      "Base": 5393,
      "Bike": 5394,
      "BAL": 5395,
      "Beng": 5396,
      "BTW": 5397,
      "Bald": 5398,
      "Border": 5399,
      "CI": 5400,
      "Ca": 5401,
      "Cat": 5402,
      "Cut": 5403,
      "Cir": 5404,
      "Clu": 5405,
      "Cash": 5406,
      "CIT": 5407,
      "Crow": 5408,
      "Cla": 5409,
      "CUR": 5410,
      "Chop": 5411,
      "CBI": 5412,
      "Climate": 5413,
      "CUL": 5414,
      "Cause": 5415,
      "DA": 5416,
      "DR": 5417,
      "DU": 5418,
      "Du": 5419,
      "Dif": 5420,
      "DRE": 5421,
      "Dear": 5422,
      "Dub": 5423,
      "Droid": 5424,
      "Details": 5425,
      "Ess": 5426,
      "Eee": 5427,
      "Edu": 5428,
      "Eating": 5429,
      "Eric": 5430,
      "FY": 5431,
      "Fi": 5432,
      "Flo": 5433,
      "Fad": 5434,
      "Fif": 5435,
      "Fool": 5436,
      "Fort": 5437,
      "FES": 5438,
      "Fans": 5439,
      "File": 5440,
      "FLA": 5441,
      "Fren": 5442,
      "Fuck": 5443,
      "Fring": 5444,
      "FOOL": 5445,
      "Gy": 5446,
      "Gre": 5447,
      "Gar": 5448,
      "Gay": 5449,
      "Gand": 5450,
      "Gad": 5451,
      "Gup": 5452,
      "Gang": 5453,
      "GIR": 5454,
      "Gimme": 5455,
      "Ham": 5456,
      "Hur": 5457,
      "Hop": 5458,
      "Hear": 5459,
      "HAP": 5460,
      "Hary": 5461,
      "HAS": 5462,
      "HUN": 5463,
      "Hamp": 5464,
      "HATE": 5465,
      "Husband": 5466,
      "HOUST": 5467,
      "II": 5468,
      "Ion": 5469,
      "Ira": 5470,
      "IMP": 5471,
      "IOUS": 5472,
      "Jack": 5473,
      "J19": 5474,
      "Jae": 5475,
      "Jingle": 5476,
      "Ky": 5477,
      "Kan": 5478,
      "Kent": 5479,
      "Kick": 5480,
      "Kash": 5481,
      "Knight": 5482,
      "Krist": 5483,
      "Lin": 5484,
      "Lan": 5485,
      "Les": 5486,
      "Long": 5487,
      "Lover": 5488,
      "LAY": 5489,
      "Lets": 5490,
      "Lines": 5491,
      "Lake": 5492,
      "Lamb": 5493,
      "Lounge": 5494,
      "Mil": 5495,
      "Mus": 5496,
      "Might": 5497,
      "Mine": 5498,
      "Mex": 5499,
      "MIT": 5500,
      "MUST": 5501,
      "Museum": 5502,
      "NC": 5503,
      "NH": 5504,
      "Nu": 5505,
      "Nat": 5506,
      "Nine": 5507,
      "NEE": 5508,
      "Nich": 5509,
      "NFL": 5510,
      "OL": 5511,
      "Oz": 5512,
      "Oli": 5513,
      "Ooh": 5514,
      "OSE": 5515,
      "Pap": 5516,
      "PRE": 5517,
      "Pie": 5518,
      "Pear": 5519,
      "Page": 5520,
      "PER": 5521,
      "PAR": 5522,
      "Pati": 5523,
      "Push": 5524,
      "Pete": 5525,
      "POW": 5526,
      "RR": 5527,
      "Ram": 5528,
      "Rut": 5529,
      "Roll": 5530,
      "Rain": 5531,
      "RIS": 5532,
      "Rates": 5533,
      "Rush": 5534,
      "Ratings": 5535,
      "Ricky": 5536,
      "Si": 5537,
      "Sar": 5538,
      "Say": 5539,
      "Sil": 5540,
      "Som": 5541,
      "Sab": 5542,
      "Scan": 5543,
      "Sep": 5544,
      "Sick": 5545,
      "Same": 5546,
      "Scr": 5547,
      "Size": 5548,
      "Summ": 5549,
      "Sonic": 5550,
      "Sprint": 5551,
      "STOP": 5552,
      "Sleep": 5553,
      "TF": 5554,
      "TR": 5555,
      "Tw": 5556,
      "Tit": 5557,
      "Tis": 5558,
      "Ted": 5559,
      "Tea": 5560,
      "Tree": 5561,
      "Tool": 5562,
      "Tak": 5563,
      "TOU": 5564,
      "TEE": 5565,
      "Tina": 5566,
      "UA": 5567,
      "UG": 5568,
      "UPS": 5569,
      "Utt": 5570,
      "UPD": 5571,
      "VS": 5572,
      "Vit": 5573,
      "Vis": 5574,
      "Vic": 5575,
      "Vish": 5576,
      "WN": 5577,
      "Wan": 5578,
      "Wash": 5579,
      "Wave": 5580,
      "Wins": 5581,
      "WHE": 5582,
      "WHO": 5583,
      "Walk": 5584,
      "WHERE": 5585,
      "XI": 5586,
      "Xbox": 5587,
      "YU": 5588,
      "Yan": 5589,
      "Yam": 5590,
      "Yah": 5591,
      "[???": 5592,
      "aq": 5593,
      "awhile": 5594,
      "bf": 5595,
      "bay": 5596,
      "bli": 5597,
      "bust": 5598,
      "bass": 5599,
      "bold": 5600,
      "bread": 5601,
      "broad": 5602,
      "bought": 5603,
      "bars": 5604,
      "battle": 5605,
      "brain": 5606,
      "bility": 5607,
      "blood": 5608,
      "baked": 5609,
      "cil": 5610,
      "card": 5611,
      "cous": 5612,
      "cable": 5613,
      "clip": 5614,
      "cake": 5615,
      "camp": 5616,
      "cific": 5617,
      "cifer": 5618,
      "cestershire": 5619,
      "coffee": 5620,
      "dh": 5621,
      "dm": 5622,
      "dor": 5623,
      "dam": 5624,
      "dine": 5625,
      "dry": 5626,
      "dishes": 5627,
      "dvd": 5628,
      "fd": 5629,
      "fab": 5630,
      "fave": 5631,
      "fru": 5632,
      "flight": 5633,
      "fingers": 5634,
      "gro": 5635,
      "gma": 5636,
      "gree": 5637,
      "gum": 5638,
      "gul": 5639,
      "gie": 5640,
      "gies": 5641,
      "gmoney": 5642,
      "gross": 5643,
      "hr": 5644,
      "hum": 5645,
      "ium": 5646,
      "iety": 5647,
      "jam": 5648,
      "jum": 5649,
      "jaw": 5650,
      "john": 5651,
      "jackson": 5652,
      "kool": 5653,
      "kshire": 5654,
      "lic": 5655,
      "lab": 5656,
      "mv": 5657,
      "mac": 5658,
      "mood": 5659,
      "mation": 5660,
      "mite": 5661,
      "mike": 5662,
      "nes": 5663,
      "nas": 5664,
      "nic": 5665,
      "nel": 5666,
      "nine": 5667,
      "nifer": 5668,
      "pi": 5669,
      "pad": 5670,
      "pun": 5671,
      "piss": 5672,
      "pool": 5673,
      "pati": 5674,
      "pitch": 5675,
      "punk": 5676,
      "pizza": 5677,
      "pussy": 5678,
      "qo": 5679,
      "rat": 5680,
      "rac": 5681,
      "rout": 5682,
      "rate": 5683,
      "race": 5684,
      "rang": 5685,
      "rina": 5686,
      "rics": 5687,
      "spl": 5688,
      "soooo": 5689,
      "sque": 5690,
      "skills": 5691,
      "tou": 5692,
      "tun": 5693,
      "tink": 5694,
      "table": 5695,
      "tank": 5696,
      "target": 5697,
      "ued": 5698,
      "ube": 5699,
      "ught": 5700,
      "vet": 5701,
      "vag": 5702,
      "vous": 5703,
      "ware": 5704,
      "waa": 5705,
      "wud": 5706,
      "winter": 5707,
      "wade": 5708,
      "wmv": 5709,
      "xx": 5710,
      "ye": 5711,
      "yoo": 5712,
      "yep": 5713,
      "inc": 5714,
      "inn": 5715,
      "iny": 5716,
      "inion": 5717,
      "ination": 5718,
      "inau": 5719,
      "influ": 5720,
      "thr": 5721,
      "ths": 5722,
      "thous": 5723,
      "erc": 5724,
      "erry": 5725,
      "ani": 5726,
      "oups": 5727,
      "oubl": 5728,
      "ouqh": 5729,
      "retweet": 5730,
      "refer": 5731,
      "rela": 5732,
      "reply": 5733,
      "repair": 5734,
      "replying": 5735,
      "refresh": 5736,
      "recei": 5737,
      "atic": 5738,
      "stic": 5739,
      "stone": 5740,
      "stick": 5741,
      "stations": 5742,
      "stalk": 5743,
      "strange": 5744,
      "status": 5745,
      "enh": 5746,
      "ensa": 5747,
      "enced": 5748,
      "toy": 5749,
      "tops": 5750,
      "toms": 5751,
      "itz": 5752,
      "itude": 5753,
      "llow": 5754,
      "isnt": 5755,
      "aran": 5756,
      "esa": 5757,
      "espe": 5758,
      "mel": 5759,
      "meets": 5760,
      "editor": 5761,
      "etin": 5762,
      "ette": 5763,
      "etition": 5764,
      "etnam": 5765,
      "held": 5766,
      "los": 5767,
      "loll": 5768,
      "loser": 5769,
      "asha": 5770,
      "ascin": 5771,
      "assem": 5772,
      "andal": 5773,
      "iced": 5774,
      "iction": 5775,
      "icine": 5776,
      "ications": 5777,
      "icons": 5778,
      "icular": 5779,
      "youre": 5780,
      "oosing": 5781,
      "lect": 5782,
      "leak": 5783,
      "league": 5784,
      "chan": 5785,
      "chall": 5786,
      "chap": 5787,
      "chris": 5788,
      "champ": 5789,
      "adel": 5790,
      "adjust": 5791,
      "rob": 5792,
      "roe": 5793,
      "rot": 5794,
      "roy": 5795,
      "rodu": 5796,
      "tie": 5797,
      "tip": 5798,
      "forget": 5799,
      "formed": 5800,
      "iden": 5801,
      "beaut": 5802,
      "haul": 5803,
      "aced": 5804,
      "acular": 5805,
      "accep": 5806,
      "seattle": 5807,
      "several": 5808,
      "lig": 5809,
      "lild": 5810,
      "liber": 5811,
      "likes": 5812,
      "liked": 5813,
      "unts": 5814,
      "unless": 5815,
      "unnie": 5816,
      "amount": 5817,
      "igner": 5818,
      "kee": 5819,
      "keys": 5820,
      "kept": 5821,
      "aller": 5822,
      "verse": 5823,
      "iling": 5824,
      "ilgri": 5825,
      "Them": 5826,
      "Their": 5827,
      "uty": 5828,
      "uries": 5829,
      "oles": 5830,
      "tered": 5831,
      "ares": 5832,
      "arett": 5833,
      "elin": 5834,
      "eline": 5835,
      "raise": 5836,
      "upload": 5837,
      "rior": 5838,
      "riage": 5839,
      "user": 5840,
      "lying": 5841,
      "lyrics": 5842,
      "mob": 5843,
      "moke": 5844,
      "mother": 5845,
      "moved": 5846,
      "modern": 5847,
      "nex": 5848,
      "neva": 5849,
      "erset": 5850,
      "agu": 5851,
      "aging": 5852,
      "doz": 5853,
      "doctor": 5854,
      "hoping": 5855,
      "pell": 5856,
      "imi": 5857,
      "impro": 5858,
      "pod": 5859,
      "pos": 5860,
      "poll": 5861,
      "????????]": 5862,
      "???????????????": 5863,
      "logical": 5864,
      "wasn": 5865,
      "illa": 5866,
      "nobody": 5867,
      "nothinq": 5868,
      "ifts": 5869,
      "ender": 5870,
      "comple": 5871,
      "combat": 5872,
      "debut": 5873,
      "deep": 5874,
      "debt": 5875,
      "opinion": 5876,
      "tawt": 5877,
      "worried": 5878,
      "worries": 5879,
      "aps": 5880,
      "appro": 5881,
      "apple": 5882,
      "ources": 5883,
      "ulate": 5884,
      "fear": 5885,
      "feet": 5886,
      "female": 5887,
      "fellow": 5888,
      "conds": 5889,
      "confer": 5890,
      "constantly": 5891,
      "While": 5892,
      "coast": 5893,
      "code": 5894,
      "cock": 5895,
      "codes": 5896,
      "coach": 5897,
      "cogn": 5898,
      "tually": 5899,
      "eps": 5900,
      "epic": 5901,
      "brb": 5902,
      "brook": 5903,
      "Inc": 5904,
      "Insp": 5905,
      "player": 5906,
      "ffles": 5907,
      "aints": 5908,
      "nail": 5909,
      "Reve": 5910,
      "Rece": 5911,
      "Ready": 5912,
      "goodness": 5913,
      "known": 5914,
      "......": 5915,
      "exist": 5916,
      "excu": 5917,
      "explain": 5918,
      "gee": 5919,
      "geous": 5920,
      "prings": 5921,
      "ires": 5922,
      "ission": 5923,
      "issue": 5924,
      "CATED": 5925,
      "actor": 5926,
      "Together": 5927,
      "clar": 5928,
      "THING": 5929,
      "tran": 5930,
      "trouble": 5931,
      "prefer": 5932,
      "needed": 5933,
      "herself": 5934,
      "cious": 5935,
      "Conne": 5936,
      "seek": 5937,
      "performance": 5938,
      "elect": 5939,
      "quiz": 5940,
      "State": 5941,
      "Stage": 5942,
      "Story": 5943,
      "psy": 5944,
      "anytime": 5945,
      "ortg": 5946,
      "groups": 5947,
      "blow": 5948,
      "bless": 5949,
      "blank": 5950,
      "ishment": 5951,
      "curre": 5952,
      "ousew": 5953,
      "hahah": 5954,
      "freezing": 5955,
      "Android": 5956,
      "spin": 5957,
      "smission": 5958,
      "aka": 5959,
      "aken": 5960,
      "scat": 5961,
      "themselves": 5962,
      "ONG": 5963,
      "yeaa": 5964,
      "izz": 5965,
      "izer": 5966,
      "izon": 5967,
      "izing": 5968,
      "izor": 5969,
      "ESPN": 5970,
      "ailing": 5971,
      "Celebrities": 5972,
      "Beat": 5973,
      "Begin": 5974,
      "Forget": 5975,
      "avo": 5976,
      "afta": 5977,
      "affected": 5978,
      "ANY": 5979,
      "guild": 5980,
      "guitar": 5981,
      "hasn": 5982,
      "gym": 5983,
      "whose": 5984,
      "OULD": 5985,
      "amed": 5986,
      "eeth": 5987,
      "Anti": 5988,
      "Analy": 5989,
      "Dod": 5990,
      "nervous": 5991,
      "tweetin": 5992,
      "Manning": 5993,
      "Provid": 5994,
      "comeback": 5995,
      "Isn": 5996,
      "TOLL": 5997,
      "serve": 5998,
      "ashes": 5999,
      "workout": 6000,
      "suck": 6001,
      "fuq": 6002,
      "fuel": 6003,
      "USED": 6004,
      "twins": 6005,
      "REEN": 6006,
      "THERE": 6007,
      "speech": 6008,
      "ISH": 6009,
      "vious": 6010,
      "Dec": 6011,
      "Def": 6012,
      "December": 6013,
      "Second": 6014,
      "Security": 6015,
      "crets": 6016,
      "angel": 6017,
      "angana": 6018,
      "feelings": 6019,
      "girlfriend": 6020,
      "ridic": 6021,
      "landmarks": 6022,
      "buzz": 6023,
      "LEG": 6024,
      "Both": 6025,
      "Mao": 6026,
      "friendly": 6027,
      "helping": 6028,
      "yeahhh": 6029,
      "Exp": 6030,
      "Explain": 6031,
      "Short": 6032,
      "Arrest": 6033,
      "cca": 6034,
      "letter": 6035,
      "rub": 6036,
      "rule": 6037,
      "zebo": 6038,
      "inten": 6039,
      "?!)": 6040,
      "TRAVELING": 6041,
      "tellig": 6042,
      "Guide": 6043,
      "Guerrill": 6044,
      "Original": 6045,
      "corn": 6046,
      "network": 6047,
      "thanksgiving": 6048,
      "Phi": 6049,
      "window": 6050,
      "windows": 6051,
      "turning": 6052,
      "ittens": 6053,
      "ferent": 6054,
      "Moon": 6055,
      "Windows": 6056,
      "hug": 6057,
      "resign": 6058,
      "discount": 6059,
      "disappointed": 6060,
      "fractu": 6061,
      "anned": 6062,
      "Adv": 6063,
      "Adam": 6064,
      "Advice": 6065,
      "Advocate": 6066,
      "Tip": 6067,
      "killers": 6068,
      "150": 6069,
      "ASH": 6070,
      "Improve": 6071,
      "ROFL": 6072,
      "keeping": 6073,
      "Roy": 6074,
      "carry": 6075,
      "slept": 6076,
      "Suns": 6077,
      "joying": 6078,
      "ancy": 6079,
      "crisis": 6080,
      "stops": 6081,
      "icals": 6082,
      "Pract": 6083,
      "balls": 6084,
      "iously": 6085,
      "mighty": 6086,
      "Attr": 6087,
      "Bush": 6088,
      "jeans": 6089,
      "Mariet": 6090,
      "Train": 6091,
      "sym": 6092,
      "studio": 6093,
      "TIVAL": 6094,
      "stones": 6095,
      "Grand": 6096,
      "aska": 6097,
      "Coy": 6098,
      "Code": 6099,
      "Covent": 6100,
      "certain": 6101,
      "central": 6102,
      "onsense": 6103,
      "***": 6104,
      "broken": 6105,
      "diff": 6106,
      "charge": 6107,
      "Diag": 6108,
      "Step": 6109,
      "Stephen": 6110,
      "cyc": 6111,
      "hearing": 6112,
      "Worldwide": 6113,
      "waiting": 6114,
      "Cycle": 6115,
      "Cypress": 6116,
      "efit": 6117,
      "effort": 6118,
      "laughing": 6119,
      "Everything": 6120,
      "flag": 6121,
      "flick": 6122,
      "HAAA": 6123,
      "hardly": 6124,
      "marry": 6125,
      "sidew": 6126,
      "walks": 6127,
      "supp": 6128,
      "suppose": 6129,
      "addresses": 6130,
      "CEO": 6131,
      "Networking": 6132,
      "mp3": 6133,
      "mptoms": 6134,
      "musicmonday": 6135,
      "passed": 6136,
      "classes": 6137,
      "Control": 6138,
      "Actually": 6139,
      "Coral": 6140,
      "BODY": 6141,
      "M48": 6142,
      "Mini": 6143,
      "burgh": 6144,
      "BlackBerry": 6145,
      "Carni": 6146,
      "Joe": 6147,
      "LIFE": 6148,
      "WII": 6149,
      "barrowman": 6150,
      "engine": 6151,
      "personal": 6152,
      "Pretty": 6153,
      "Premier": 6154,
      "HTC": 6155,
      "meeting": 6156,
      "limited": 6157,
      "ription": 6158,
      "subject": 6159,
      "Delhiites": 6160,
      "colour": 6161,
      "colate": 6162,
      "holding": 6163,
      "leading": 6164,
      "hammer": 6165,
      "M53": 6166,
      "Mercur": 6167,
      "Research": 6168,
      "running": 6169,
      "itional": 6170,
      "opened": 6171,
      "confession": 6172,
      "confidence": 6173,
      "offering": 6174,
      "Americ": 6175,
      "America": 6176,
      "BABY": 6177,
      "Loose": 6178,
      "Study": 6179,
      "TAKE": 6180,
      "TWO": 6181,
      "glasses": 6182,
      "parties": 6183,
      "snowing": 6184,
      "Berkshire": 6185,
      "dropped": 6186,
      "armacy": 6187,
      "chocolate": 6188,
      "FORE": 6189,
      "Kingdia": 6190,
      "Simon": 6191,
      "Simple": 6192,
      "Vietnam": 6193,
      "dedicated": 6194,
      "entertainment": 6195,
      "hopes": 6196,
      "Headphones": 6197,
      "questions": 6198,
      "Bluetooth": 6199,
      "Panic": 6200,
      "Retreat": 6201,
      "Return": 6202,
      "buddy": 6203,
      "crib": 6204,
      "directions": 6205,
      "sweetie": 6206,
      "reported": 6207,
      "fields": 6208,
      "Based": 6209,
      "Basic": 6210,
      "Director": 6211,
      "Share": 6212,
      "billion": 6213,
      "camer": 6214,
      "healthy": 6215,
      "chedule": 6216,
      "develop": 6217,
      "exciting": 6218,
      "profile": 6219,
      "commercials": 6220,
      "ACC": 6221,
      "ACT": 6222,
      "Freel": 6223,
      "dragon": 6224,
      "install": 6225,
      "complete": 6226,
      "Auto": 6227,
      "Jeanne": 6228,
      "Murder": 6229,
      "SPN": 6230,
      "Type": 6231,
      "Vehicle": 6232,
      "capital": 6233,
      "flying": 6234,
      "uniform": 6235,
      "truth": 6236,
      "Company": 6237,
      "celebrity": 6238,
      "Facts": 6239,
      "Factor": 6240,
      "Meta": 6241,
      "Midseason": 6242,
      "River": 6243,
      "Turbo": 6244,
      "Turbine": 6245,
      "bench": 6246,
      "benefits": 6247,
      "culture": 6248,
      "respons": 6249,
      "legend": 6250,
      "pulled": 6251,
      "Playing": 6252,
      "Emily": 6253,
      "Europe": 6254,
      "Eurodance": 6255,
      "Frank": 6256,
      "Learning": 6257,
      "Officer": 6258,
      "Public": 6259,
      "SONG": 6260,
      "Years": 6261,
      "created": 6262,
      "skip": 6263,
      "tlk": 6264,
      "reminds": 6265,
      "stories": 6266,
      "decision": 6267,
      "Command": 6268,
      "Communic": 6269,
      "British": 6270,
      ">>>": 6271,
      "Awesome": 6272,
      "CRY": 6273,
      "Electric": 6274,
      "Gib": 6275,
      "Madrid": 6276,
      "MISS": 6277,
      "SWF": 6278,
      "cument": 6279,
      "mirror": 6280,
      "strike": 6281,
      "ception": 6282,
      "scene": 6283,
      "providing": 6284,
      "9835": 6285,
      "CSI": 6286,
      "Finally": 6287,
      "besides": 6288,
      "bottom": 6289,
      "frame": 6290,
      "panel": 6291,
      "purpose": 6292,
      "changing": 6293,
      "changes": 6294,
      "texas": 6295,
      "promotions": 6296,
      "successfully": 6297,
      "vvvvvvvv": 6298,
      "DWG": 6299,
      "Derby": 6300,
      "Effective": 6301,
      "Effects": 6302,
      "Raj": 6303,
      "Straight": 6304,
      "Telangana": 6305,
      "Welsh": 6306,
      "Welcome": 6307,
      "easier": 6308,
      "economy": 6309,
      "latest": 6310,
      "motor": 6311,
      "nuts": 6312,
      "eroy": 6313,
      "arrives": 6314,
      "activity": 6315,
      "industry": 6316,
      "industrial": 6317,
      "Execu": 6318,
      "Classic": 6319,
      "political": 6320,
      "Politics": 6321,
      "Couples": 6322,
      "Favre": 6323,
      "Human": 6324,
      "Lenovo": 6325,
      "Password": 6326,
      "Waiting": 6327,
      "affili": 6328,
      "bbles": 6329,
      "folks": 6330,
      "satis": 6331,
      "television": 6332,
      "connect": 6333,
      "protect": 6334,
      "communicate": 6335,
      "Scottish": 6336,
      "8211": 6337,
      "Bolton": 6338,
      "Creative": 6339,
      "DONT": 6340,
      "Forever": 6341,
      "Government": 6342,
      "Hotel": 6343,
      "Jennifer": 6344,
      "Oscar": 6345,
      "WoW": 6346,
      "crush": 6347,
      "gaming": 6348,
      "rules": 6349,
      "revolution": 6350,
      "unveils": 6351,
      "comfortable": 6352,
      "READY": 6353,
      "employ": 6354,
      "Entertainment": 6355,
      "breathe": 6356,
      "Renewable": 6357,
      "Iranian": 6358,
      "Korea": 6359,
      "Roundup": 6360,
      "SCREEN": 6361,
      "Total": 6362,
      "biscu": 6363,
      "creepy": 6364,
      "emotions": 6365,
      "fighters": 6366,
      "gangs": 6367,
      "phew": 6368,
      "reliable": 6369,
      "locations": 6370,
      "tempor": 6371,
      "example": 6372,
      "gradu": 6373,
      "obsessed": 6374,
      "MARK": 6375,
      "restaurant": 6376,
      "Platinum": 6377,
      "character": 6378,
      "Strategy": 6379,
      "LMFAO": 6380,
      "BJP": 6381,
      "Breeze": 6382,
      "Cros": 6383,
      "Edinburgh": 6384,
      "Fleet": 6385,
      "Garden": 6386,
      "Mamata": 6387,
      "Messenger": 6388,
      "Niggas": 6389,
      "Oxford": 6390,
      "Those": 6391,
      "determin": 6392,
      "efficiency": 6393,
      "iTunes": 6394,
      "punching": 6395,
      "inspired": 6396,
      "stitute": 6397,
      "method": 6398,
      "semester": 6399,
      "Chilling": 6400,
      "quisition": 6401,
      "ITALY": 6402,
      "Democr": 6403,
      "Alternative": 6404,
      "Industry": 6405,
      "normally": 6406,
      "families": 6407,
      "favourite": 6408,
      "Warwickshire": 6409,
      "Desperate": 6410,
      "*?*": 6411,
      "Aussie": 6412,
      "Club": 6413,
      "Different": 6414,
      "FYI": 6415,
      "FESTIVAL": 6416,
      "Fringe": 6417,
      "Gandhi": 6418,
      "Gupta": 6419,
      "HAPPY": 6420,
      "Haryana": 6421,
      "Hampshire": 6422,
      "HOUSTON": 6423,
      "Iraq": 6424,
      "Kylie": 6425,
      "Kashmir": 6426,
      "NEED": 6427,
      "Nichol": 6428,
      "Rutland": 6429,
      "Sarah": 6430,
      "Somerset": 6431,
      "TEETH": 6432,
      "Wanna": 6433,
      "Washington": 6434,
      "WHEN": 6435,
      "Yahoo": 6436,
      "[???]": 6437,
      "grocer": 6438,
      "inaugur": 6439,
      "relax": 6440,
      "especially": 6441,
      "ascinating": 6442,
      "assembly": 6443,
      "lilduval": 6444,
      "arettes": 6445,
      "excuse": 6446,
      "Guerrilla": 6447,
      "Marietta": 6448,
      "Coventry": 6449,
      "Carnival": 6450,
      "\"-": 6451,
      ")):": 6452,
      "+/": 6453,
      "-...": 6454,
      ".<": 6455,
      ".?": 6456,
      "130": 6457,
      "2k": 6458,
      "2u": 6459,
      "350": 6460,
      "3rd": 6461,
      "68": 6462,
      "70": 6463,
      "75": 6464,
      "83": 6465,
      "88": 6466,
      "802": 6467,
      "96": 6468,
      "99": 6469,
      "900": 6470,
      "960": 6471,
      ";-)": 6472,
      "<-": 6473,
      ">.<": 6474,
      "?'": 6475,
      "AK": 6476,
      "Ah": 6477,
      "Av": 6478,
      "Ale": 6479,
      "Ape": 6480,
      "Aff": 6481,
      "Away": 6482,
      "ALE": 6483,
      "Aint": 6484,
      "Appl": 6485,
      "Award": 6486,
      "A60": 6487,
      "A14": 6488,
      "A59": 6489,
      "ATHEN": 6490,
      "AOL": 6491,
      "BB": 6492,
      "BK": 6493,
      "Ba": 6494,
      "Bow": 6495,
      "Bay": 6496,
      "Bal": 6497,
      "Bac": 6498,
      "Bun": 6499,
      "Bot": 6500,
      "Bly": 6501,
      "Bry": 6502,
      "BIN": 6503,
      "BLO": 6504,
      "Biz": 6505,
      "Bright": 6506,
      "Brid": 6507,
      "BAND": 6508,
      "Beach": 6509,
      "Bhar": 6510,
      "Blood": 6511,
      "Bulk": 6512,
      "CM": 6513,
      "CU": 6514,
      "CY": 6515,
      "Ci": 6516,
      "Cow": 6517,
      "Cup": 6518,
      "Coll": 6519,
      "Cul": 6520,
      "Catch": 6521,
      "CLO": 6522,
      "Cable": 6523,
      "Clar": 6524,
      "Cru": 6525,
      "Cream": 6526,
      "CHE": 6527,
      "Camp": 6528,
      "Cities": 6529,
      "Close": 6530,
      "DX": 6531,
      "Det": 6532,
      "Dun": 6533,
      "Done": 6534,
      "Dark": 6535,
      "Dick": 6536,
      "Dish": 6537,
      "Dian": 6538,
      "DIS": 6539,
      "DOO": 6540,
      "Dance": 6541,
      "Dors": 6542,
      "Death": 6543,
      "Drew": 6544,
      "Damm": 6545,
      "Dude": 6546,
      "Drank": 6547,
      "Drop": 6548,
      "Drug": 6549,
      "District": 6550,
      "Ec": 6551,
      "Er": 6552,
      "Eve": 6553,
      "Eco": 6554,
      "Estate": 6555,
      "Evid": 6556,
      "END": 6557,
      "Econom": 6558,
      "Escape": 6559,
      "Fan": 6560,
      "Fal": 6561,
      "Few": 6562,
      "Fir": 6563,
      "Fry": 6564,
      "Fred": 6565,
      "Feat": 6566,
      "Fier": 6567,
      "FANT": 6568,
      "Fascinating": 6569,
      "GF": 6570,
      "Gon": 6571,
      "Gen": 6572,
      "Gas": 6573,
      "Gal": 6574,
      "Gro": 6575,
      "Gree": 6576,
      "Gaz": 6577,
      "Golf": 6578,
      "HN": 6579,
      "HQ": 6580,
      "Hor": 6581,
      "Hew": 6582,
      "Hom": 6583,
      "Hab": 6584,
      "Him": 6585,
      "Hind": 6586,
      "Haw": 6587,
      "Hans": 6588,
      "Hung": 6589,
      "HDD": 6590,
      "HIG": 6591,
      "Half": 6592,
      "Higher": 6593,
      "Housew": 6594,
      "IL": 6595,
      "IZ": 6596,
      "Il": 6597,
      "Ian": 6598,
      "Iow": 6599,
      "Ike": 6600,
      "IES": 6601,
      "Ivy": 6602,
      "Idi": 6603,
      "ICK": 6604,
      "ICE": 6605,
      "IFF": 6606,
      "Irish": 6607,
      "Ireland": 6608,
      "JJ": 6609,
      "Jr": 6610,
      "Jet": 6611,
      "Jab": 6612,
      "Jess": 6613,
      "Jee": 6614,
      "J11": 6615,
      "Jens": 6616,
      "J13": 6617,
      "J14": 6618,
      "J24": 6619,
      "J33": 6620,
      "J26": 6621,
      "KY": 6622,
      "Ka": 6623,
      "Kid": 6624,
      "Kam": 6625,
      "Kab": 6626,
      "Kim": 6627,
      "Kard": 6628,
      "KNO": 6629,
      "Krip": 6630,
      "Karn": 6631,
      "LF": 6632,
      "LJ": 6633,
      "LP": 6634,
      "Lt": 6635,
      "Lew": 6636,
      "Lil": 6637,
      "Light": 6638,
      "LBC": 6639,
      "Lich": 6640,
      "Lots": 6641,
      "MK": 6642,
      "MW": 6643,
      "Ms": 6644,
      "Mas": 6645,
      "Moo": 6646,
      "Mood": 6647,
      "Moll": 6648,
      "Mali": 6649,
      "Master": 6650,
      "MLM": 6651,
      "Miley": 6652,
      "MONEY": 6653,
      "Mesa": 6654,
      "NG": 6655,
      "NP": 6656,
      "NV": 6657,
      "NZ": 6658,
      "Nan": 6659,
      "Nur": 6660,
      "Nim": 6661,
      "Nep": 6662,
      "Nick": 6663,
      "Noooo": 6664,
      "Nash": 6665,
      "NING": 6666,
      "NAS": 6667,
      "Number": 6668,
      "OH": 6669,
      "Os": 6670,
      "Ore": 6671,
      "Oil": 6672,
      "Our": 6673,
      "OFF": 6674,
      "Ocho": 6675,
      "OTHER": 6676,
      "Pv": 6677,
      "Ppl": 6678,
      "Pab": 6679,
      "Past": 6680,
      "Pill": 6681,
      "Pep": 6682,
      "Pix": 6683,
      "PRA": 6684,
      "Pee": 6685,
      "Pey": 6686,
      "PRO": 6687,
      "Pla": 6688,
      "Pred": 6689,
      "Pics": 6690,
      "PAD": 6691,
      "PHO": 6692,
      "Path": 6693,
      "President": 6694,
      "Pizza": 6695,
      "Pione": 6696,
      "Rd": 6697,
      "Ru": 6698,
      "Rit": 6699,
      "Rad": 6700,
      "Rid": 6701,
      "Rac": 6702,
      "Run": 6703,
      "Rest": 6704,
      "Rum": 6705,
      "Rul": 6706,
      "Rice": 6707,
      "Race": 6708,
      "Ros": 6709,
      "Rich": 6710,
      "Rah": 6711,
      "Rub": 6712,
      "RNT": 6713,
      "Reach": 6714,
      "Raid": 6715,
      "RIGHT": 6716,
      "Russ": 6717,
      "Roles": 6718,
      "SR": 6719,
      "Sk": 6720,
      "Sl": 6721,
      "Sw": 6722,
      "Sat": 6723,
      "Set": 6724,
      "Sel": 6725,
      "Spl": 6726,
      "Sir": 6727,
      "Sho": 6728,
      "Sure": 6729,
      "Site": 6730,
      "Sher": 6731,
      "Sav": 6732,
      "STO": 6733,
      "Scre": 6734,
      "Sens": 6735,
      "Sigh": 6736,
      "Sign": 6737,
      "Suff": 6738,
      "Shell": 6739,
      "SUN": 6740,
      "Since": 6741,
      "Sug": 6742,
      "Slate": 6743,
      "SPE": 6744,
      "Shop": 6745,
      "SUCK": 6746,
      "Sitting": 6747,
      "Sweep": 6748,
      "Schedule": 6749,
      "TC": 6750,
      "TT": 6751,
      "Tx": 6752,
      "Ten": 6753,
      "Tha": 6754,
      "Tab": 6755,
      "Tag": 6756,
      "Tap": 6757,
      "Tour": 6758,
      "TON": 6759,
      "Table": 6760,
      "Tek": 6761,
      "Tale": 6762,
      "Tai": 6763,
      "Text": 6764,
      "Turn": 6765,
      "Trend": 6766,
      "Twins": 6767,
      "Trees": 6768,
      "Towers": 6769,
      "Teeth": 6770,
      "UE": 6771,
      "Uh": 6772,
      "Used": 6773,
      "VA": 6774,
      "VN": 6775,
      "Ven": 6776,
      "Vent": 6777,
      "Vist": 6778,
      "Vamp": 6779,
      "WO": 6780,
      "Wing": 6781,
      "Woo": 6782,
      "Wil": 6783,
      "Ware": 6784,
      "WAT": 6785,
      "Water": 6786,
      "WEE": 6787,
      "Wales": 6788,
      "Wants": 6789,
      "Witch": 6790,
      "WOOD": 6791,
      "WINE": 6792,
      "WTF": 6793,
      "WWII": 6794,
      "YT": 6795,
      "Yout": 6796,
      "Yep": 6797,
      "YAY": 6798,
      "Yung": 6799,
      "Ze": 6800,
      "Zep": 6801,
      "Zomb": 6802,
      "[????????]": 6803,
      "].": 6804,
      "ao": 6805,
      "awe": 6806,
      "aiss": 6807,
      "ahh": 6808,
      "bam": 6809,
      "bom": 6810,
      "bri": 6811,
      "bia": 6812,
      "bby": 6813,
      "bite": 6814,
      "bage": 6815,
      "boun": 6816,
      "bows": 6817,
      "bird": 6818,
      "birth": 6819,
      "broadcast": 6820,
      "banned": 6821,
      "cd": 6822,
      "cit": 6823,
      "cers": 6824,
      "ctu": 6825,
      "cia": 6826,
      "cure": 6827,
      "cds": 6828,
      "cran": 6829,
      "cards": 6830,
      "cudd": 6831,
      "cereal": 6832,
      "dated": 6833,
      "details": 6834,
      "drugs": 6835,
      "ease": 6836,
      "easter": 6837,
      "fet": 6838,
      "fac": 6839,
      "fare": 6840,
      "fest": 6841,
      "floo": 6842,
      "fting": 6843,
      "gor": 6844,
      "gic": 6845,
      "gir": 6846,
      "gne": 6847,
      "gate": 6848,
      "gaw": 6849,
      "gear": 6850,
      "ghost": 6851,
      "hme": 6852,
      "hers": 6853,
      "hans": 6854,
      "hbu": 6855,
      "hates": 6856,
      "hints": 6857,
      "hidden": 6858,
      "hilar": 6859,
      "husband": 6860,
      "iP": 6861,
      "ito": 6862,
      "iot": 6863,
      "ially": 6864,
      "ipped": 6865,
      "ibly": 6866,
      "iAfrica": 6867,
      "jan": 6868,
      "jab": 6869,
      "jack": 6870,
      "jour": 6871,
      "judge": 6872,
      "ker": 6873,
      "kay": 6874,
      "kish": 6875,
      "kittens": 6876,
      "lf": 6877,
      "lp": 6878,
      "ls": 6879,
      "lay": 6880,
      "lam": 6881,
      "lays": 6882,
      "lorry": 6883,
      "loud": 6884,
      "mc": 6885,
      "mh": 6886,
      "mu": 6887,
      "mus": 6888,
      "mpe": 6889,
      "mour": 6890,
      "match": 6891,
      "mile": 6892,
      "mash": 6893,
      "males": 6894,
      "madd": 6895,
      "mult": 6896,
      "miles": 6897,
      "micals": 6898,
      "nc": 6899,
      "nat": 6900,
      "num": 6901,
      "nick": 6902,
      "names": 6903,
      "nature": 6904,
      "ox": 6905,
      "oy": 6906,
      "ology": 6907,
      "pal": 6908,
      "pha": 6909,
      "pir": 6910,
      "pink": 6911,
      "patch": 6912,
      "plot": 6913,
      "purs": 6914,
      "pony": 6915,
      "pilgri": 6916,
      "qon": 6917,
      "qood": 6918,
      "rookie": 6919,
      "sor": 6920,
      "sli": 6921,
      "sig": 6922,
      "sab": 6923,
      "sud": 6924,
      "sort": 6925,
      "skill": 6926,
      "sets": 6927,
      "session": 6928,
      "sized": 6929,
      "swee": 6930,
      "swag": 6931,
      "silly": 6932,
      "schol": 6933,
      "smoke": 6934,
      "tf": 6935,
      "tan": 6936,
      "tar": 6937,
      "tch": 6938,
      "txt": 6939,
      "targeted": 6940,
      "uknow": 6941,
      "uhh": 6942,
      "util": 6943,
      "ucation": 6944,
      "vX": 6945,
      "vp": 6946,
      "vend": 6947,
      "vul": 6948,
      "vince": 6949,
      "vict": 6950,
      "vacy": 6951,
      "vandal": 6952,
      "wy": 6953,
      "wth": 6954,
      "wed": 6955,
      "wig": 6956,
      "wut": 6957,
      "wra": 6958,
      "wers": 6959,
      "wides": 6960,
      "wasted": 6961,
      "xiety": 6962,
      "yess": 6963,
      "yumm": 6964,
      "zer": 6965,
      "zon": 6966,
      "zah": 6967,
      "zai": 6968,
      "zards": 6969,
      "||": 6970,
      "~*?*": 6971,
      "inet": 6972,
      "indo": 6973,
      "inals": 6974,
      "invol": 6975,
      "thal": 6976,
      "thur": 6977,
      "threat": 6978,
      "thread": 6979,
      "thief": 6980,
      "threw": 6981,
      "thrill": 6982,
      "erjee": 6983,
      "ane": 6984,
      "anie": 6985,
      "ancial": 6986,
      "anza": 6987,
      "..\"": 6988,
      "onq": 6989,
      "oner": 6990,
      "oust": 6991,
      "ouri": 6992,
      "oucestershire": 6993,
      "rec": 6994,
      "reed": 6995,
      "renew": 6996,
      "recomm": 6997,
      "replace": 6998,
      "resol": 6999,
      "reforms": 7000,
      "remark": 7001,
      "retail": 7002,
      "recogn": 7003,
      "returning": 7004,
      "atu": 7005,
      "ataka": 7006,
      "stu": 7007,
      "sting": 7008,
      "stro": 7009,
      "stom": 7010,
      "stol": 7011,
      "strip": 7012,
      "staff": 7013,
      "stretch": 7014,
      "ori": 7015,
      "oric": 7016,
      "orial": 7017,
      "ording": 7018,
      "ention": 7019,
      "enge": 7020,
      "encing": 7021,
      "environmental": 7022,
      "toll": 7023,
      "toil": 7024,
      "toys": 7025,
      "toler": 7026,
      "itll": 7027,
      "itic": 7028,
      "theart": 7029,
      "isl": 7030,
      "iscoming": 7031,
      "arre": 7032,
      "ario": 7033,
      "arian": 7034,
      "memor": 7035,
      "megaw": 7036,
      "owww": 7037,
      "eds": 7038,
      "edition": 7039,
      "education": 7040,
      "etes": 7041,
      "etely": 7042,
      "hek": 7043,
      "height": 7044,
      "loot": 7045,
      "loso": 7046,
      "lover": 7047,
      "location": 7048,
      "asing": 7049,
      "asure": 7050,
      "icing": 7051,
      "icus": 7052,
      "icians": 7053,
      "alarm": 7054,
      "alert": 7055,
      "youth": 7056,
      "youuu": 7057,
      "ooch": 7058,
      "oops": 7059,
      "lem": 7060,
      "lear": 7061,
      "leverages": 7062,
      "lebron": 7063,
      "velling": 7064,
      "ofa": 7065,
      "ches": 7066,
      "chop": 7067,
      "ado": 7068,
      "addy": 7069,
      "adian": 7070,
      "advice": 7071,
      "administr": 7072,
      "roit": 7073,
      "rose": 7074,
      "rolls": 7075,
      "tims": 7076,
      "tific": 7077,
      "ided": 7078,
      "beer": 7079,
      "bear": 7080,
      "beast": 7081,
      "belie": 7082,
      "became": 7083,
      "becca": 7084,
      "habit": 7085,
      "havin": 7086,
      "ewhen": 7087,
      "acel": 7088,
      "sees": 7089,
      "seys": 7090,
      "seats": 7091,
      "sector": 7092,
      "select": 7093,
      "seconds": 7094,
      "lif": 7095,
      "libr": 7096,
      "liqu": 7097,
      "lives": 7098,
      "una": 7099,
      "ott": 7100,
      "amond": 7101,
      "igation": 7102,
      "kees": 7103,
      "keley": 7104,
      "allows": 7105,
      "sold": 7106,
      "socc": 7107,
      "socks": 7108,
      "weed": 7109,
      "weir": 7110,
      "weap": 7111,
      "verif": 7112,
      "verage": 7113,
      "verty": 7114,
      "ilty": 7115,
      "ilder": 7116,
      "ilities": 7117,
      "wher": 7118,
      "whis": 7119,
      "whate": 7120,
      "TheNews": 7121,
      "Theater": 7122,
      "ural": 7123,
      "urges": 7124,
      "thatd": 7125,
      "myspace": 7126,
      "ently": 7127,
      "mah": 7128,
      "shia": 7129,
      "shoot": 7130,
      "sharing": 7131,
      "shrugs": 7132,
      "outdoor": 7133,
      "olis": 7134,
      "olic": 7135,
      "ternal": 7136,
      "terror": 7137,
      "elers": 7138,
      "plz": 7139,
      "plication": 7140,
      "rah": 7141,
      "rape": 7142,
      "rage": 7143,
      "!!\"": 7144,
      "!!..": 7145,
      "upon": 7146,
      "upcoming": 7147,
      "updates": 7148,
      "ria": 7149,
      "rix": 7150,
      "ripped": 7151,
      "riqht": 7152,
      "aband": 7153,
      "abad": 7154,
      "abase": 7155,
      "abuse": 7156,
      "ables": 7157,
      "usage": 7158,
      "usual": 7159,
      "lolz": 7160,
      "mod": 7161,
      "mohan": 7162,
      "nowhere": 7163,
      "nell": 7164,
      "neck": 7165,
      "neither": 7166,
      "nephew": 7167,
      "ersonic": 7168,
      "withdra": 7169,
      "agas": 7170,
      "agles": 7171,
      "agents": 7172,
      "dogs": 7173,
      "doinq": 7174,
      "document": 7175,
      "holl": 7176,
      "ustain": 7177,
      "pee": 7178,
      "pected": 7179,
      "imit": 7180,
      "imjust": 7181,
      "imply": 7182,
      "improve": 7183,
      "tea": 7184,
      "teams": 7185,
      "pock": 7186,
      "poppin": 7187,
      "poverty": 7188,
      "Thing": 7189,
      "Thom": 7190,
      "Thought": 7191,
      "Thinks": 7192,
      "logist": 7193,
      "nose": 7194,
      "nolog": 7195,
      "antic": 7196,
      "ifi": 7197,
      "note": 7198,
      "notice": 7199,
      "noticed": 7200,
      "endale": 7201,
      "butt": 7202,
      "article": 7203,
      "goat": 7204,
      "comb": 7205,
      "comin": 7206,
      "comments": 7207,
      "decl": 7208,
      "depart": 7209,
      "debate": 7210,
      "devast": 7211,
      "degree": 7212,
      "kings": 7213,
      "oph": 7214,
      "oppo": 7215,
      "opard": 7216,
      "opposition": 7217,
      "ums": 7218,
      "tax": 7219,
      "taps": 7220,
      "taught": 7221,
      "indic": 7222,
      "apps": 7223,
      "approves": 7224,
      "apolis": 7225,
      "application": 7226,
      "cker": 7227,
      "feed": 7228,
      "females": 7229,
      "Chi": 7230,
      "Chan": 7231,
      "Chile": 7232,
      "Choose": 7233,
      "Cherry": 7234,
      "Choosing": 7235,
      "conven": 7236,
      "consum": 7237,
      "convo": 7238,
      "consci": 7239,
      "cores": 7240,
      "covers": 7241,
      "brow": 7242,
      "brant": 7243,
      "brings": 7244,
      "bricks": 7245,
      "braska": 7246,
      "Insur": 7247,
      "Institute": 7248,
      "InTheNews": 7249,
      "thering": 7250,
      "bodies": 7251,
      "ffalo": 7252,
      "prob": 7253,
      "pros": 7254,
      "process": 7255,
      "10k": 7256,
      "naw": 7257,
      "named": 7258,
      "naked": 7259,
      "traged": 7260,
      "mailing": 7261,
      "mann": 7262,
      "ixon": 7263,
      "beta": 7264,
      "betta": 7265,
      "betty": 7266,
      "Reg": 7267,
      "Refr": 7268,
      "Release": 7269,
      "Releas": 7270,
      "Recycling": 7271,
      "Remember": 7272,
      "Rebecca": 7273,
      "auer": 7274,
      "audition": 7275,
      "author": 7276,
      "knowing": 7277,
      "exchange": 7278,
      "excellent": 7279,
      "asset": 7280,
      "gotten": 7281,
      "Weird": 7282,
      "geek": 7283,
      "2000": 7284,
      "2013": 7285,
      "CAUS": 7286,
      "witness": 7287,
      "hows": 7288,
      "acting": 7289,
      "actress": 7290,
      "INK": 7291,
      "INS": 7292,
      "INDI": 7293,
      "Heat": 7294,
      "Hell": 7295,
      "Hehe": 7296,
      "Heidi": 7297,
      "Toky": 7298,
      "Toshi": 7299,
      "bye": 7300,
      "clin": 7301,
      "cles": 7302,
      "clown": 7303,
      "cliner": 7304,
      "THOSE": 7305,
      "atches": 7306,
      "truck": 7307,
      "troubl": 7308,
      "prep": 7309,
      "present": 7310,
      "prepar": 7311,
      "saving": 7312,
      "VEN": 7313,
      "Cons": 7314,
      "Contin": 7315,
      "seeks": 7316,
      "seemed": 7317,
      "seekers": 7318,
      "mored": 7319,
      "percent": 7320,
      "perately": 7321,
      "perature": 7322,
      "LORE": 7323,
      "LOLO": 7324,
      "quit": 7325,
      "quot": 7326,
      "quake": 7327,
      "quotes": 7328,
      "quiet": 7329,
      "quarter": 7330,
      "quality": 7331,
      "Station": 7332,
      "Stream": 7333,
      "Stars": 7334,
      "didyou": 7335,
      "psons": 7336,
      "anyways": 7337,
      "anybody": 7338,
      "junk": 7339,
      "gadget": 7340,
      "gr8": 7341,
      "grind": 7342,
      "graced": 7343,
      "closure": 7344,
      "blk": 7345,
      "bler": 7346,
      "blon": 7347,
      "blah": 7348,
      "blows": 7349,
      "blessed": 7350,
      "curious": 7351,
      "curtain": 7352,
      "shell": 7353,
      "sheesh": 7354,
      "backup": 7355,
      "background": 7356,
      "Andy": 7357,
      "sparks": 7358,
      "smfh": 7359,
      "overtime": 7360,
      "akin": 7361,
      "aker": 7362,
      "scal": 7363,
      "scam": 7364,
      "screw": 7365,
      "scription": 7366,
      "Soon": 7367,
      "ONLY": 7368,
      "missing": 7369,
      "ohan": 7370,
      "yeap": 7371,
      "follows": 7372,
      "follower": 7373,
      "iod": 7374,
      "izzy": 7375,
      "ESCO": 7376,
      "Los": 7377,
      "Celebrate": 7378,
      "Being": 7379,
      "typing": 7380,
      "Ford": 7381,
      "Formul": 7382,
      "Forums": 7383,
      "answers": 7384,
      "lucifer": 7385,
      "avya": 7386,
      "dying": 7387,
      "reads": 7388,
      "afford": 7389,
      "ANS": 7390,
      "guide": 7391,
      "mina": 7392,
      "OUND": 7393,
      "Anxiety": 7394,
      "Doc": 7395,
      "Doing": 7396,
      "Door": 7397,
      "MySpace": 7398,
      "lmaoo": 7399,
      "iance": 7400,
      "wouldnt": 7401,
      "dela": 7402,
      "Wimax": 7403,
      "everywhere": 7404,
      "ATLES": 7405,
      "couples": 7406,
      "coupons": 7407,
      "plement": 7408,
      "Mane": 7409,
      "Manmohan": 7410,
      "TOS": 7411,
      "TODAY": 7412,
      "served": 7413,
      "ashed": 7414,
      "pictures": 7415,
      "suff": 7416,
      "sugg": 7417,
      "Comcast": 7418,
      "helor": 7419,
      "Blogs": 7420,
      "ITNE": 7421,
      "THEM": 7422,
      "Nov": 7423,
      "Noida": 7424,
      "speaks": 7425,
      "himself": 7426,
      "viv": 7427,
      "vior": 7428,
      "Dems": 7429,
      "Definit": 7430,
      "Secret": 7431,
      "Secrets": 7432,
      "creation": 7433,
      "tons": 7434,
      "tonite": 7435,
      "angry": 7436,
      "currentl": 7437,
      "ridin": 7438,
      "ridays": 7439,
      "ridge": 7440,
      "lando": 7441,
      "MAY": 7442,
      "bution": 7443,
      "attend": 7444,
      "attention": 7445,
      "IDK": 7446,
      "powered": 7447,
      "LED": 7448,
      "LER": 7449,
      "dese": 7450,
      "deser": 7451,
      "designer": 7452,
      "desperately": 7453,
      "Maine": 7454,
      "funeral": 7455,
      "MENT": 7456,
      "dukes": 7457,
      "Almighty": 7458,
      "showed": 7459,
      "Exeter": 7460,
      "Exerc": 7461,
      "Shot": 7462,
      "bighair": 7463,
      "nightma": 7464,
      "Arshad": 7465,
      "ademy": 7466,
      "Canvas": 7467,
      "letting": 7468,
      "rush": 7469,
      "ruction": 7470,
      "?!?": 7471,
      "Guy": 7472,
      "Guild": 7473,
      "Orlando": 7474,
      "corpor": 7475,
      "corrup": 7476,
      "Unit": 7477,
      "Until": 7478,
      "Unfortun": 7479,
      "Western": 7480,
      "eyang": 7481,
      "Phil": 7482,
      "Pharmacy": 7483,
      "parts": 7484,
      "particular": 7485,
      "Mean": 7486,
      "formal": 7487,
      "Blow": 7488,
      "Month": 7489,
      "div": 7490,
      "dibly": 7491,
      "mayor": 7492,
      "turkey": 7493,
      "waking": 7494,
      "waffles": 7495,
      "wonders": 7496,
      "itten": 7497,
      "ignor": 7498,
      "bsites": 7499,
      "Justin": 7500,
      "Motion": 7501,
      "Model": 7502,
      "Moved": 7503,
      "badly": 7504,
      "huhu": 7505,
      "hugg": 7506,
      "Brits": 7507,
      "Quality": 7508,
      "discover": 7509,
      "disrespect": 7510,
      "fron": 7511,
      "frum": 7512,
      "frigg": 7513,
      "annie": 7514,
      "annual": 7515,
      "headache": 7516,
      "Add": 7517,
      "Added": 7518,
      "Administr": 7519,
      "killin": 7520,
      "north": 7521,
      "medicine": 7522,
      "sexually": 7523,
      "cleared": 7524,
      "pushes": 7525,
      "timate": 7526,
      "Without": 7527,
      "ASS": 7528,
      "ASTIC": 7529,
      "Imma": 7530,
      "ImTOO": 7531,
      "Implants": 7532,
      "ROW": 7533,
      "fault": 7534,
      "sumthy": 7535,
      "CKING": 7536,
      "Rod": 7537,
      "Robert": 7538,
      "cars": 7539,
      "Asia": 7540,
      "Area": 7541,
      "BBC1": 7542,
      "Spot": 7543,
      "Sundays": 7544,
      "joking": 7545,
      "jokes": 7546,
      "ances": 7547,
      "aturally": 7548,
      "critic": 7549,
      "stopping": 7550,
      "Prince": 7551,
      "Prison": 7552,
      "handed": 7553,
      "handsome": 7554,
      "writer": 7555,
      "restored": 7556,
      "versary": 7557,
      "county": 7558,
      "HEAR": 7559,
      "Notting": 7560,
      "singing": 7561,
      "surround": 7562,
      "Buffalo": 7563,
      "kidney": 7564,
      "Maria": 7565,
      "Mario": 7566,
      "System": 7567,
      "ipment": 7568,
      "soul": 7569,
      "sleepin": 7570,
      "ARD": 7571,
      "ARG": 7572,
      "Cleveland": 7573,
      "DIY": 7574,
      "DICATED": 7575,
      "SEA": 7576,
      "SED": 7577,
      "studying": 7578,
      "Interest": 7579,
      "Interview": 7580,
      "Trad": 7581,
      "uffin": 7582,
      "Ground": 7583,
      "Grady": 7584,
      "tries": 7585,
      "tribut": 7586,
      "warned": 7587,
      "pressing": 7588,
      "pressed": 7589,
      "Cole": 7590,
      "Nebraska": 7591,
      "UNI": 7592,
      "UNIT": 7593,
      "UNDER": 7594,
      "UNESCO": 7595,
      "Watching": 7596,
      "caster": 7597,
      "castle": 7598,
      "voy": 7599,
      "steady": 7600,
      "Leg": 7601,
      "Update": 7602,
      "fog": 7603,
      "sites": 7604,
      "shape": 7605,
      "keyboard": 7606,
      "solutions": 7607,
      "196": 7608,
      "1985": 7609,
      "A35": 7610,
      "STING": 7611,
      "broke": 7612,
      "slick": 7613,
      "slides": 7614,
      "meaning": 7615,
      "charm": 7616,
      "According": 7617,
      "Diary": 7618,
      "DivX": 7619,
      "Mayer": 7620,
      "Mayor": 7621,
      "Steve": 7622,
      "Steven": 7623,
      "Stevie": 7624,
      "driver": 7625,
      "driven": 7626,
      "drives": 7627,
      "farms": 7628,
      "setting": 7629,
      "thoughts": 7630,
      "Northwest": 7631,
      "Northumber": 7632,
      "Cyber": 7633,
      "Willi": 7634,
      "wishing": 7635,
      "ADA": 7636,
      "BEATLES": 7637,
      "MOV": 7638,
      "fied": 7639,
      "COB": 7640,
      "Everywhere": 7641,
      "eva": 7642,
      "evn": 7643,
      "evil": 7644,
      "flat": 7645,
      "menu": 7646,
      "minds": 7647,
      "contact": 7648,
      "turns": 7649,
      "maries": 7650,
      "marriage": 7651,
      "sides": 7652,
      "walked": 7653,
      "regard": 7654,
      "ainted": 7655,
      "Webmaster": 7656,
      "Haven": 7657,
      "lmfaooo": 7658,
      "added": 7659,
      "career": 7660,
      "careful": 7661,
      "ellow": 7662,
      "faster": 7663,
      "mploy": 7664,
      "mommy": 7665,
      "momma": 7666,
      "chatting": 7667,
      "149": 7668,
      "FAMI": 7669,
      "HOT": 7670,
      "hehehehe": 7671,
      "VERY": 7672,
      "A49": 7673,
      "DOM": 7674,
      "DOWN": 7675,
      "passage": 7676,
      "sonq": 7677,
      "Academy": 7678,
      "Corpor": 7679,
      "Colchester": 7680,
      "Column": 7681,
      "pickin": 7682,
      "picked": 7683,
      "A120": 7684,
      "BOY": 7685,
      "BOAT": 7686,
      "M42": 7687,
      "Seriously": 7688,
      "Species": 7689,
      "ahahah": 7690,
      "ahahaha": 7691,
      "hurry": 7692,
      "ledge": 7693,
      "rises": 7694,
      "venture": 7695,
      "entials": 7696,
      "entific": 7697,
      "committed": 7698,
      "Southwest": 7699,
      "264": 7700,
      "Brothers": 7701,
      "Performance": 7702,
      "WIRED": 7703,
      "borinq": 7704,
      "stands": 7705,
      "standing": 7706,
      "engers": 7707,
      "Brea": 7708,
      "Breaking": 7709,
      "CHI": 7710,
      "Offer": 7711,
      "Offshore": 7712,
      "PCs": 7713,
      "Prez": 7714,
      "Precious": 7715,
      "TURNT": 7716,
      "eryl": 7717,
      "Wellness": 7718,
      "Discount": 7719,
      "HTML": 7720,
      "Helen": 7721,
      "Kelly": 7722,
      "VIE": 7723,
      "Warner": 7724,
      "Warrior": 7725,
      "niggaz": 7726,
      "sentenced": 7727,
      "limits": 7728,
      "taining": 7729,
      "subscription": 7730,
      "WHITE": 7731,
      "incredibly": 7732,
      "itchen": 7733,
      "leads": 7734,
      "hamshire": 7735,
      "defend": 7736,
      "define": 7737,
      "deadline": 7738,
      "interested": 7739,
      "281": 7740,
      "A66": 7741,
      "GOT": 7742,
      "GOING": 7743,
      "Respon": 7744,
      "Respons": 7745,
      "athon": 7746,
      "falling": 7747,
      "garage": 7748,
      "homes": 7749,
      "homies": 7750,
      "confir": 7751,
      "coverage": 7752,
      "wondering": 7753,
      "wonderful": 7754,
      "glish": 7755,
      "parti": 7756,
      "Scotland": 7757,
      "52nd": 7758,
      "Berlin": 7759,
      "Berkeley": 7760,
      "drove": 7761,
      "messages": 7762,
      "choice": 7763,
      "tipsy": 7764,
      "celeb": 7765,
      "Podcast": 7766,
      "Kingdom": 7767,
      "Simply": 7768,
      "Simpsons": 7769,
      "causes": 7770,
      "ddd": 7771,
      "beaten": 7772,
      "cellphone": 7773,
      "programs": 7774,
      "Flash": 7775,
      "MMMM": 7776,
      "Panthers": 7777,
      "Panels": 7778,
      "Paris": 7779,
      "Parliament": 7780,
      "Palm": 7781,
      "Palms": 7782,
      "Retur": 7783,
      "Retail": 7784,
      "Schools": 7785,
      "cries": 7786,
      "director": 7787,
      "mistry": 7788,
      "mistakes": 7789,
      "mistaken": 7790,
      "niest": 7791,
      "sweety": 7792,
      "render": 7793,
      "str8": 7794,
      "rolling": 7795,
      "smaller": 7796,
      "Daniel": 7797,
      "Funny": 7798,
      "Listen": 7799,
      "McFly": 7800,
      "OWW": 7801,
      "Shape": 7802,
      "Shazah": 7803,
      "holidays": 7804,
      "vais": 7805,
      "developing": 7806,
      "development": 7807,
      "production": 7808,
      "producer": 7809,
      "products": 7810,
      "Technology": 7811,
      "Between": 7812,
      "Camer": 7813,
      "Comedy": 7814,
      "DEDICATED": 7815,
      "Focus": 7816,
      "Keyshia": 7817,
      "MSI": 7818,
      "Pressure": 7819,
      "Store": 7820,
      "Stores": 7821,
      "hanna": 7822,
      "links": 7823,
      "instance": 7824,
      "ordered": 7825,
      "arao": 7826,
      "complicated": 7827,
      "umpkin": 7828,
      "appears": 7829,
      "appeared": 7830,
      "Weekly": 7831,
      "Doesn": 7832,
      "A1237": 7833,
      "Eddy": 7834,
      "Feb": 7835,
      "Feeling": 7836,
      "Gloucestershire": 7837,
      "Glendale": 7838,
      "Jeff": 7839,
      "Jeannie": 7840,
      "Murray": 7841,
      "Missouri": 7842,
      "SPAM": 7843,
      "Strong": 7844,
      "Strictly": 7845,
      "aims": 7846,
      "client": 7847,
      "fourth": 7848,
      "include": 7849,
      "access": 7850,
      "unique": 7851,
      "shuts": 7852,
      "Annual": 7853,
      "Compon": 7854,
      "Competition": 7855,
      "Traveling": 7856,
      "celebrate": 7857,
      "Australian": 7858,
      "Early": 7859,
      "Illino": 7860,
      "Planning": 7861,
      "Ripper": 7862,
      "Rihanna": 7863,
      "Repu": 7864,
      "Terra": 7865,
      "Terry": 7866,
      "Terror": 7867,
      "crying": 7868,
      "catching": 7869,
      "domin": 7870,
      "respond": 7871,
      "legal": 7872,
      "legisl": 7873,
      "Bedfordshire": 7874,
      "Films": 7875,
      "Harvard": 7876,
      "Lawrence": 7877,
      "Leary": 7878,
      "Renaiss": 7879,
      "Robin": 7880,
      "Walking": 7881,
      "hatin": 7882,
      "skool": 7883,
      "ticket": 7884,
      "virtual": 7885,
      "retiring": 7886,
      "reminded": 7887,
      "decided": 7888,
      "eeeeeeee": 7889,
      "Producers": 7890,
      "Community": 7891,
      "publicist": 7892,
      "7706": 7893,
      "Aware": 7894,
      "Awww": 7895,
      "CRU": 7896,
      "Eleven": 7897,
      "Falling": 7898,
      "Gervais": 7899,
      "Holy": 7900,
      "Single": 7901,
      "Supersonic": 7902,
      "Wouldn": 7903,
      "batter": 7904,
      "cumin": 7905,
      "djgmoney": 7906,
      "douche": 7907,
      "dungeon": 7908,
      "dressed": 7909,
      "hangs": 7910,
      "lonely": 7911,
      "literature": 7912,
      "simply": 7913,
      "similar": 7914,
      "strikes": 7915,
      "albums": 7916,
      "ambul": 7917,
      "tempt": 7918,
      "temperature": 7919,
      "considering": 7920,
      "problems": 7921,
      "automat": 7922,
      "scenes": 7923,
      "spectacular": 7924,
      "Indiana": 7925,
      "Editorial": 7926,
      "Banerjee": 7927,
      "Blues": 7928,
      "Finding": 7929,
      "Georg": 7930,
      "HERO": 7931,
      "Lux": 7932,
      "Options": 7933,
      "Oprah": 7934,
      "bott": 7935,
      "dirt": 7936,
      "fantasy": 7937,
      "juice": 7938,
      "panels": 7939,
      "prime": 7940,
      "treating": 7941,
      "treated": 7942,
      "trends": 7943,
      "ernicus": 7944,
      "releases": 7945,
      "texts": 7946,
      "teenage": 7947,
      "awwww": 7948,
      "speakers": 7949,
      "!!!!!!!!!!!": 7950,
      "pushing": 7951,
      "pushed": 7952,
      "finished": 7953,
      "Clinton": 7954,
      "Clinics": 7955,
      "officials": 7956,
      "Country": 7957,
      "DWF": 7958,
      "Hullo": 7959,
      "Killed": 7960,
      "Raven": 7961,
      "Trib": 7962,
      "WWWW": 7963,
      "Wrong": 7964,
      "Writer": 7965,
      "cooking": 7966,
      "easily": 7967,
      "filled": 7968,
      "silver": 7969,
      "silent": 7970,
      "treatments": 7971,
      "yelling": 7972,
      "arrived": 7973,
      "chicken": 7974,
      "activists": 7975,
      "bridge": 7976,
      "bridges": 7977,
      "vocative": 7978,
      "politics": 7979,
      "3GPP": 7980,
      "AMERI": 7981,
      "Calendar": 7982,
      "Current": 7983,
      "Curtis": 7984,
      "Copy": 7985,
      "Copernicus": 7986,
      "Casey": 7987,
      "Denmark": 7988,
      "Humble": 7989,
      "Jonas": 7990,
      "Matters": 7991,
      "Matrix": 7992,
      "Minds": 7993,
      "PLEASE": 7994,
      "Summer": 7995,
      "copy": 7996,
      "flir": 7997,
      "flipping": 7998,
      "folk": 7999,
      "jailed": 8000,
      "massive": 8001,
      "whether": 8002,
      "wooh": 8003,
      "injured": 8004,
      "throwing": 8005,
      "appreciation": 8006,
      "consult": 8007,
      "concert": 8008,
      "concerned": 8009,
      "grandma": 8010,
      "blasting": 8011,
      "Commercial": 8012,
      "launches": 8013,
      "Transfer": 8014,
      "communication": 8015,
      "leadership": 8016,
      "freakin": 8017,
      "Undercover": 8018,
      "<<<": 8019,
      "===": 8020,
      "CRAZY": 8021,
      "Leave": 8022,
      "Million": 8023,
      "Mattress": 8024,
      "MMOs": 8025,
      "Oscars": 8026,
      "Sussex": 8027,
      "Tempe": 8028,
      "Temple": 8029,
      "Volume": 8030,
      "WRONG": 8031,
      "bourne": 8032,
      "baseball": 8033,
      "equal": 8034,
      "honestly": 8035,
      "micro": 8036,
      "nuclear": 8037,
      "puppy": 8038,
      "puppies": 8039,
      "qettin": 8040,
      "smell": 8041,
      "square": 8042,
      "spreading": 8043,
      "victims": 8044,
      "innov": 8045,
      "recipe": 8046,
      "recipes": 8047,
      "redux": 8048,
      "weeps": 8049,
      "Charlie": 8050,
      "contractor": 8051,
      "bruises": 8052,
      "Reader": 8053,
      "expensive": 8054,
      "THANK": 8055,
      "talented": 8056,
      "counter": 8057,
      "council": 8058,
      "couches": 8059,
      "Programs": 8060,
      "designed": 8061,
      "monitoring": 8062,
      "Advertise": 8063,
      "Advertising": 8064,
      "suspect": 8065,
      "suspected": 8066,
      "Audio": 8067,
      "Bobby": 8068,
      "Bangalo": 8069,
      "Cliff": 8070,
      "Dragon": 8071,
      "France": 8072,
      "Front": 8073,
      "Ferre": 8074,
      "FUNNY": 8075,
      "Karzai": 8076,
      "Louis": 8077,
      "MUAH": 8078,
      "Maryland": 8079,
      "Risk": 8080,
      "Roman": 8081,
      "Talking": 8082,
      "Truth": 8083,
      "Truly": 8084,
      "Virgin": 8085,
      "gateway": 8086,
      "mountains": 8087,
      "twist": 8088,
      "indeed": 8089,
      "throat": 8090,
      "recovering": 8091,
      "attracted": 8092,
      "teacher": 8093,
      "THESE": 8094,
      "Adventure": 8095,
      "breasts": 8096,
      "Breakfast": 8097,
      "extremely": 8098,
      "Viewers": 8099,
      "Angeles": 8100,
      "responded": 8101,
      "Cigarettes": 8102,
      "Criminal": 8103,
      "Counter": 8104,
      "Evening": 8105,
      "Frame": 8106,
      "Fabulous": 8107,
      "Fantastic": 8108,
      "Gazebo": 8109,
      "Gordon": 8110,
      "Growth": 8111,
      "Henley": 8112,
      "Hilton": 8113,
      "Pregnant": 8114,
      "Twilight": 8115,
      "YEAH": 8116,
      "circa": 8117,
      "dammit": 8118,
      "further": 8119,
      "multiple": 8120,
      "swim": 8121,
      "tacklehugs": 8122,
      "remote": 8123,
      "required": 8124,
      "rescue": 8125,
      "artist": 8126,
      "advertising": 8127,
      "maaan": 8128,
      "motivation": 8129,
      "dollar": 8130,
      "Therapy": 8131,
      "umblr": 8132,
      "Whitney": 8133,
      "property": 8134,
      "protesters": 8135,
      "Reasons": 8136,
      "execs": 8137,
      "transfer": 8138,
      "pretti": 8139,
      "safety": 8140,
      "Considering": 8141,
      "Problems": 8142,
      "aterials": 8143,
      "Physio": 8144,
      "frustration": 8145,
      "ROTFL": 8146,
      "COMPLE": 8147,
      "ActiveX": 8148,
      "bargains": 8149,
      "TEXT": 8150,
      "Magazines": 8151,
      "horrible": 8152,
      ":'(": 8153,
      "Baseball": 8154,
      "Bengal": 8155,
      "Circle": 8156,
      "CITY": 8157,
      "CURB": 8158,
      "Chopin": 8159,
      "Education": 8160,
      "Fifty": 8161,
      "Greens": 8162,
      "GIRL": 8163,
      "HUNG": 8164,
      "Jaebum": 8165,
      "Kristen": 8166,
      "Scanner": 8167,
      "Uttar": 8168,
      "UPDATE": 8169,
      "Vitrum": 8170,
      "Viceroy": 8171,
      "Yankees": 8172,
      "aqain": 8173,
      "busted": 8174,
      "cousin": 8175,
      "fruit": 8176,
      "human": 8177,
      "johnbarrowman": 8178,
      "tourist": 8179,
      "tuned": 8180,
      "vaganza": 8181,
      "refreshing": 8182,
      "received": 8183,
      "stalker": 8184,
      "ensaver": 8185,
      "lollz": 8186,
      "champion": 8187,
      "robbers": 8188,
      "beauty": 8189,
      "accepts": 8190,
      "liberal": 8191,
      "dozens": 8192,
      "complex": 8193,
      "conference": 8194,
      "Revealed": 8195,
      "Receive": 8196,
      "clarif": 8197,
      "transmission": 8198,
      "Dodgers": 8199,
      "Decision": 8200,
      "LEGGO": 8201,
      "Philoso": 8202,
      "Attractions": 8203,
      "Coyotes": 8204,
      "sidewalk": 8205,
      "engineering": 8206,
      "Mercury": 8207,
      "Freelance": 8208,
      "legendary": 8209,
      "Communications": 8210,
      "Straightforward": 8211,
      "Executive": 8212,
      "graduate": 8213,
      "determined": 8214,
      "FESTIVALS": 8215,
      "grocery": 8216,
      "+/-": 8217,
      "2k10": 8218,
      "Apex": 8219,
      "ALERT": 8220,
      "ATHENS": 8221,
      "Blyton": 8222,
      "CLOTHES": 8223,
      "Detroit": 8224,
      "Diane": 8225,
      "Dorset": 8226,
      "Evidence": 8227,
      "Falcon": 8228,
      "FANTASTIC": 8229,
      "Gazette": 8230,
      "Housewives": 8231,
      "Iowa": 8232,
      "Idiots": 8233,
      "Jaber": 8234,
      "Jensen": 8235,
      "Kardash": 8236,
      "Kripke": 8237,
      "Karnataka": 8238,
      "Lewis": 8239,
      "Lichfield": 8240,
      "Moore": 8241,
      "Nashville": 8242,
      "Oregon": 8243,
      "Pablo": 8244,
      "Peyton": 8245,
      "PHOTOS": 8246,
      "Rahul": 8247,
      "Sheryl": 8248,
      "Screensaver": 8249,
      "Sugar": 8250,
      "Taiwan": 8251,
      "Trends": 8252,
      "Ventura": 8253,
      "Vista": 8254,
      "Youtube": 8255,
      "hilarious": 8256,
      "mpeg": 8257,
      "multit": 8258,
      "ponytail": 8259,
      "sweetheart": 8260,
      "stomach": 8261,
      "stolen": 8262,
      "toilet": 8263,
      "memory": 8264,
      "acelet": 8265,
      "library": 8266,
      "soccer": 8267,
      "weirdo": 8268,
      "conventional": 8269,
      "conscious": 8270,
      "Insurance": 8271,
      "tragedy": 8272,
      "CAUSE": 8273,
      "INDIA": 8274,
      "Tokyo": 8275,
      "Toshiba": 8276,
      "Continue": 8277,
      "Formula": 8278,
      "luciferiscoming": 8279,
      "suggestion": 8280,
      "ITNEY": 8281,
      "Definitive": 8282,
      "Exercise": 8283,
      "bighairthursday": 8284,
      "Unfortunately": 8285,
      "sumthyn": 8286,
      "Northumberland": 8287,
      "FAMILY": 8288,
      "Responses": 8289,
      "Shazahn": 8290,
      "Illinois": 8291,
      "Renaissance": 8292,
      "Bangalore": 8293,
      "Philosophy": 8294,
      "\",": 8295,
      "\"~": 8296,
      "\"...": 8297,
      "$.": 8298,
      "%...": 8299,
      "'...": 8300,
      "(&": 8301,
      ")..": 8302,
      ")...": 8303,
      "*..": 8304,
      ",\"": 8305,
      ",,": 8306,
      ",..": 8307,
      "-$": 8308,
      "-^": 8309,
      ".:": 8310,
      "140": 8311,
      "2P": 8312,
      "2The": 8313,
      "2pm": 8314,
      "216": 8315,
      "240": 8316,
      "2gether": 8317,
      "4G": 8318,
      "4m": 8319,
      "4get": 8320,
      "400": 8321,
      "4real": 8322,
      "4Me": 8323,
      "4Video": 8324,
      "5T": 8325,
      "5k": 8326,
      "5th": 8327,
      "67": 8328,
      "6pm": 8329,
      "631": 8330,
      "71": 8331,
      "72": 8332,
      "74": 8333,
      "750": 8334,
      "89": 8335,
      "8th": 8336,
      "860": 8337,
      "93": 8338,
      "95": 8339,
      ":\"": 8340,
      ":|": 8341,
      ";]": 8342,
      "<--------": 8343,
      "=]": 8344,
      "?)": 8345,
      "?-": 8346,
      "?]": 8347,
      "?.?": 8348,
      "@...": 8349,
      "AV": 8350,
      "Ao": 8351,
      "Ame": 8352,
      "Aam": 8353,
      "Ado": 8354,
      "Act": 8355,
      "Action": 8356,
      "Age": 8357,
      "Apr": 8358,
      "ALO": 8359,
      "Aven": 8360,
      "A39": 8361,
      "Abu": 8362,
      "Able": 8363,
      "A25": 8364,
      "Ayes": 8365,
      "A18": 8366,
      "AHA": 8367,
      "Aug": 8368,
      "A26": 8369,
      "Ahah": 8370,
      "AGO": 8371,
      "A52": 8372,
      "Aali": 8373,
      "Ashes": 8374,
      "AQU": 8375,
      "Aspect": 8376,
      "Aplus": 8377,
      "A500": 8378,
      "Astro": 8379,
      "Average": 8380,
      "B4": 8381,
      "BG": 8382,
      "Ball": 8383,
      "Bel": 8384,
      "Bus": 8385,
      "Bust": 8386,
      "Boll": 8387,
      "BRE": 8388,
      "Bie": 8389,
      "Bure": 8390,
      "Batch": 8391,
      "Bio": 8392,
      "BRA": 8393,
      "BIT": 8394,
      "Brow": 8395,
      "Bru": 8396,
      "BER": 8397,
      "Bran": 8398,
      "BRO": 8399,
      "Broad": 8400,
      "Blip": 8401,
      "BHT": 8402,
      "Bath": 8403,
      "Bunk": 8404,
      "Brain": 8405,
      "BIG": 8406,
      "Burn": 8407,
      "Bands": 8408,
      "Bears": 8409,
      "BWO": 8410,
      "Bauer": 8411,
      "Baker": 8412,
      "CF": 8413,
      "CQ": 8414,
      "CT": 8415,
      "CW": 8416,
      "Cin": 8417,
      "Cer": 8418,
      "Cre": 8419,
      "Cit": 8420,
      "Clo": 8421,
      "Coo": 8422,
      "Core": 8423,
      "Cous": 8424,
      "Coh": 8425,
      "Cav": 8426,
      "CTV": 8427,
      "CLE": 8428,
      "Cair": 8429,
      "Cze": 8430,
      "Crist": 8431,
      "Clip": 8432,
      "Clock": 8433,
      "CHA": 8434,
      "CHO": 8435,
      "Couch": 8436,
      "Copen": 8437,
      "CTA": 8438,
      "Cards": 8439,
      "CPE": 8440,
      "CROM": 8441,
      "CTIC": 8442,
      "Coffee": 8443,
      "Cookie": 8444,
      "CNET": 8445,
      "CCI": 8446,
      "DH": 8447,
      "DL": 8448,
      "DP": 8449,
      "Ds": 8450,
      "Dy": 8451,
      "Dou": 8452,
      "Dar": 8453,
      "Das": 8454,
      "Doo": 8455,
      "Dall": 8456,
      "Dur": 8457,
      "Dol": 8458,
      "Dere": 8459,
      "Dest": 8460,
      "Doll": 8461,
      "DAP": 8462,
      "Dame": 8463,
      "Dang": 8464,
      "Dress": 8465,
      "DID": 8466,
      "Dave": 8467,
      "DUN": 8468,
      "Dai": 8469,
      "DAM": 8470,
      "Domin": 8471,
      "Double": 8472,
      "DAB": 8473,
      "Duty": 8474,
      "EI": 8475,
      "EM": 8476,
      "EU": 8477,
      "EV": 8478,
      "EY": 8479,
      "Ez": 8480,
      "Eas": 8481,
      "Equ": 8482,
      "Emer": 8483,
      "Egy": 8484,
      "EAT": 8485,
      "Each": 8486,
      "EAR": 8487,
      "Eston": 8488,
      "EPO": 8489,
      "F1": 8490,
      "FC": 8491,
      "FG": 8492,
      "FU": 8493,
      "Fing": 8494,
      "Fut": 8495,
      "Fol": 8496,
      "Fel": 8497,
      "Fight": 8498,
      "Fail": 8499,
      "FAN": 8500,
      "Fame": 8501,
      "FAT": 8502,
      "Flip": 8503,
      "Foot": 8504,
      "Files": 8505,
      "FRI": 8506,
      "Floy": 8507,
      "FIR": 8508,
      "Fiel": 8509,
      "Folder": 8510,
      "Furniture": 8511,
      "Fishing": 8512,
      "Fitness": 8513,
      "FDA": 8514,
      "Fridays": 8515,
      "GB": 8516,
      "GM": 8517,
      "Gha": 8518,
      "Gil": 8519,
      "Gur": 8520,
      "Gest": 8521,
      "Gif": 8522,
      "Gul": 8523,
      "Gear": 8524,
      "Glast": 8525,
      "GREE": 8526,
      "Gave": 8527,
      "Gos": 8528,
      "GAY": 8529,
      "Gates": 8530,
      "GUN": 8531,
      "GPS": 8532,
      "Glow": 8533,
      "Ghost": 8534,
      "Gift": 8535,
      "Geno": 8536,
      "Han": 8537,
      "Hing": 8538,
      "Hay": 8539,
      "Hart": 8540,
      "Hul": 8541,
      "Hong": 8542,
      "Hud": 8543,
      "HOO": 8544,
      "Hip": 8545,
      "Huff": 8546,
      "Hub": 8547,
      "Hug": 8548,
      "Haaaa": 8549,
      "Heter": 8550,
      "HLY": 8551,
      "HOOD": 8552,
      "Hidden": 8553,
      "HONEY": 8554,
      "Hwy": 8555,
      "IE": 8556,
      "Iv": 8557,
      "Ino": 8558,
      "Ide": 8559,
      "IRE": 8560,
      "ICA": 8561,
      "IRA": 8562,
      "Imm": 8563,
      "ILL": 8564,
      "IKE": 8565,
      "Ipod": 8566,
      "IANS": 8567,
      "JU": 8568,
      "Jam": 8569,
      "Jere": 8570,
      "Jag": 8571,
      "Jum": 8572,
      "Jour": 8573,
      "June": 8574,
      "J30": 8575,
      "J25": 8576,
      "J16": 8577,
      "Jake": 8578,
      "J34": 8579,
      "J27": 8580,
      "J29": 8581,
      "JAM": 8582,
      "J35": 8583,
      "J47": 8584,
      "Juni": 8585,
      "Jamm": 8586,
      "J42": 8587,
      "J46": 8588,
      "JLS": 8589,
      "KB": 8590,
      "KK": 8591,
      "KR": 8592,
      "Kin": 8593,
      "Kay": 8594,
      "Kare": 8595,
      "Kel": 8596,
      "Kong": 8597,
      "Kits": 8598,
      "Kany": 8599,
      "KEE": 8600,
      "KAY": 8601,
      "Kings": 8602,
      "Kev": 8603,
      "KCRA": 8604,
      "Keral": 8605,
      "KIO": 8606,
      "Kavya": 8607,
      "Ly": 8608,
      "Led": 8609,
      "Lot": 8610,
      "Lion": 8611,
      "Lest": 8612,
      "Lind": 8613,
      "Line": 8614,
      "Late": 8615,
      "Lie": 8616,
      "Lite": 8617,
      "Lak": 8618,
      "Lee": 8619,
      "LIT": 8620,
      "LIS": 8621,
      "LLE": 8622,
      "Lily": 8623,
      "Lever": 8624,
      "Lip": 8625,
      "Luck": 8626,
      "Leng": 8627,
      "Laz": 8628,
      "LUCK": 8629,
      "LSON": 8630,
      "Laur": 8631,
      "LINE": 8632,
      "Litter": 8633,
      "M2": 8634,
      "M3": 8635,
      "MC": 8636,
      "MD": 8637,
      "Mb": 8638,
      "Mp": 8639,
      "Mu": 8640,
      "Mall": 8641,
      "Map": 8642,
      "Mate": 8643,
      "Mits": 8644,
      "M20": 8645,
      "Mower": 8646,
      "Mans": 8647,
      "Mmm": 8648,
      "MID": 8649,
      "M11": 8650,
      "Mouse": 8651,
      "MING": 8652,
      "Male": 8653,
      "MSE": 8654,
      "M40": 8655,
      "Maaaa": 8656,
      "MLive": 8657,
      "MUR": 8658,
      "M23": 8659,
      "Muk": 8660,
      "Mamm": 8661,
      "Mouth": 8662,
      "MESS": 8663,
      "MMER": 8664,
      "MIND": 8665,
      "Mimi": 8666,
      "Mortg": 8667,
      "Mizor": 8668,
      "Mohan": 8669,
      "NJ": 8670,
      "Nou": 8671,
      "Nas": 8672,
      "Nic": 8673,
      "Nom": 8674,
      "Nation": 8675,
      "NUS": 8676,
      "Nina": 8677,
      "NCE": 8678,
      "NATION": 8679,
      "NIGHT": 8680,
      "NAME": 8681,
      "Navo": 8682,
      "Nonsense": 8683,
      "Nagas": 8684,
      "Nixon": 8685,
      "Naturally": 8686,
      "O_": 8687,
      "Oce": 8688,
      "Oct": 8689,
      "Opp": 8690,
      "Occ": 8691,
      "Obs": 8692,
      "Opt": 8693,
      "Olly": 8694,
      "Oooo": 8695,
      "Own": 8696,
      "Ovar": 8697,
      "OCS": 8698,
      "OPLE": 8699,
      "OJO": 8700,
      "ODOM": 8701,
      "PH": 8702,
      "PI": 8703,
      "PL": 8704,
      "PT": 8705,
      "PU": 8706,
      "Pi": 8707,
      "Pit": 8708,
      "Pow": 8709,
      "Ped": 8710,
      "Pand": 8711,
      "Pew": 8712,
      "Pig": 8713,
      "Put": 8714,
      "Pir": 8715,
      "Poll": 8716,
      "Pea": 8717,
      "Pink": 8718,
      "Pist": 8719,
      "Pame": 8720,
      "Pike": 8721,
      "Paid": 8722,
      "Purch": 8723,
      "Person": 8724,
      "Pause": 8725,
      "Pussy": 8726,
      "Q4": 8727,
      "Rf": 8728,
      "Ron": 8729,
      "Row": 8730,
      "Ric": 8731,
      "Rel": 8732,
      "Rust": 8733,
      "Rap": 8734,
      "RCA": 8735,
      "Rough": 8736,
      "ROO": 8737,
      "Rome": 8738,
      "Rated": 8739,
      "Rory": 8740,
      "Ruper": 8741,
      "Rach": 8742,
      "Random": 8743,
      "RSS": 8744,
      "Runt": 8745,
      "Randy": 8746,
      "Rotic": 8747,
      "Rural": 8748,
      "ROUND": 8749,
      "SA": 8750,
      "SB": 8751,
      "SN": 8752,
      "SV": 8753,
      "SZ": 8754,
      "Sor": 8755,
      "Sid": 8756,
      "Sac": 8757,
      "Ster": 8758,
      "Sea": 8759,
      "Six": 8760,
      "Sau": 8761,
      "Saw": 8762,
      "Sue": 8763,
      "Squ": 8764,
      "SES": 8765,
      "Sway": 8766,
      "SAN": 8767,
      "Soooo": 8768,
      "SIT": 8769,
      "Sang": 8770,
      "STRA": 8771,
      "Scor": 8772,
      "Sons": 8773,
      "SHA": 8774,
      "Samp": 8775,
      "SOM": 8776,
      "Sams": 8777,
      "Session": 8778,
      "Ski": 8779,
      "Sense": 8780,
      "Sara": 8781,
      "SQU": 8782,
      "Santa": 8783,
      "Spread": 8784,
      "SIGHT": 8785,
      "SAME": 8786,
      "SITE": 8787,
      "Selection": 8788,
      "SNL": 8789,
      "Schol": 8790,
      "SLEE": 8791,
      "Sasha": 8792,
      "Skept": 8793,
      "Saints": 8794,
      "Springs": 8795,
      "Sakin": 8796,
      "SSED": 8797,
      "TN": 8798,
      "Tam": 8799,
      "Tol": 8800,
      "Tone": 8801,
      "Tart": 8802,
      "TRE": 8803,
      "Tear": 8804,
      "TIN": 8805,
      "Tick": 8806,
      "Treat": 8807,
      "Told": 8808,
      "Tav": 8809,
      "Tys": 8810,
      "TLE": 8811,
      "TBC": 8812,
      "Tory": 8813,
      "TAR": 8814,
      "TAL": 8815,
      "Tamp": 8816,
      "TTU": 8817,
      "Tired": 8818,
      "Tila": 8819,
      "TMAS": 8820,
      "Tumblr": 8821,
      "TDP": 8822,
      "U25": 8823,
      "Urb": 8824,
      "Ufriday": 8825,
      "Ustream": 8826,
      "UStream": 8827,
      "VB": 8828,
      "Va": 8829,
      "Var": 8830,
      "Vill": 8831,
      "VAN": 8832,
      "Vote": 8833,
      "Vicks": 8834,
      "VPD": 8835,
      "Vids": 8836,
      "Vari": 8837,
      "Vizor": 8838,
      "WD": 8839,
      "WS": 8840,
      "Ward": 8841,
      "Wine": 8842,
      "WTH": 8843,
      "WTV": 8844,
      "WAL": 8845,
      "Wooo": 8846,
      "WOM": 8847,
      "WANT": 8848,
      "WEL": 8849,
      "WBR": 8850,
      "Witness": 8851,
      "WOULD": 8852,
      "WISH": 8853,
      "Wtf": 8854,
      "XP": 8855,
      "XX": 8856,
      "Xc": 8857,
      "Xil": 8858,
      "Xvi": 8859,
      "XPS": 8860,
      "XXI": 8861,
      "YD": 8862,
      "YO": 8863,
      "Yu": 8864,
      "Yas": 8865,
      "Yay": 8866,
      "Yall": 8867,
      "Yup": 8868,
      "YES": 8869,
      "YAL": 8870,
      "YALL": 8871,
      "YSR": 8872,
      "Yellow": 8873,
      "ZM": 8874,
      "Zin": 8875,
      "Zer": 8876,
      "Zay": 8877,
      "Zim": 8878,
      "[?????????": 8879,
      "^-^": 8880,
      "_grammy": 8881,
      "`???": 8882,
      "aha": 8883,
      "ael": 8884,
      "aire": 8885,
      "bb": 8886,
      "bol": 8887,
      "bht": 8888,
      "bone": 8889,
      "bast": 8890,
      "bld": 8891,
      "bul": 8892,
      "bort": 8893,
      "bish": 8894,
      "bio": 8895,
      "bts": 8896,
      "bian": 8897,
      "bbs": 8898,
      "bster": 8899,
      "backs": 8900,
      "bath": 8901,
      "bowl": 8902,
      "bidden": 8903,
      "cti": 8904,
      "cab": 8905,
      "cart": 8906,
      "cco": 8907,
      "cie": 8908,
      "cci": 8909,
      "crow": 8910,
      "cave": 8911,
      "cbs": 8912,
      "cson": 8913,
      "clim": 8914,
      "cities": 8915,
      "dc": 8916,
      "dn": 8917,
      "dv": 8918,
      "dar": 8919,
      "det": 8920,
      "dot": 8921,
      "dent": 8922,
      "dim": 8923,
      "diss": 8924,
      "dick": 8925,
      "dish": 8926,
      "dmin": 8927,
      "dang": 8928,
      "dating": 8929,
      "dign": 8930,
      "dles": 8931,
      "dwar": 8932,
      "dump": 8933,
      "dancing": 8934,
      "distr": 8935,
      "drank": 8936,
      "dka": 8937,
      "dental": 8938,
      "district": 8939,
      "eg": 8940,
      "eth": 8941,
      "ees": 8942,
      "eow": 8943,
      "eve": 8944,
      "eight": 8945,
      "ego": 8946,
      "ethan": 8947,
      "emer": 8948,
      "ebook": 8949,
      "eged": 8950,
      "eesh": 8951,
      "eCommerce": 8952,
      "eagles": 8953,
      "fto": 8954,
      "fit": 8955,
      "fal": 8956,
      "foo": 8957,
      "fut": 8958,
      "fers": 8959,
      "fits": 8960,
      "fish": 8961,
      "fold": 8962,
      "fame": 8963,
      "foooo": 8964,
      "fran": 8965,
      "font": 8966,
      "faces": 8967,
      "faction": 8968,
      "festival": 8969,
      "fainted": 8970,
      "gly": 8971,
      "gart": 8972,
      "gard": 8973,
      "gap": 8974,
      "gbr": 8975,
      "gwatch": 8976,
      "gins": 8977,
      "gical": 8978,
      "greg": 8979,
      "gged": 8980,
      "gooo": 8981,
      "grip": 8982,
      "ggest": 8983,
      "gwater": 8984,
      "grew": 8985,
      "greet": 8986,
      "grill": 8987,
      "gender": 8988,
      "hb": 8989,
      "hw": 8990,
      "hon": 8991,
      "hay": 8992,
      "hoo": 8993,
      "hig": 8994,
      "hmy": 8995,
      "hus": 8996,
      "hide": 8997,
      "hire": 8998,
      "hous": 8999,
      "hook": 9000,
      "hatt": 9001,
      "hike": 9002,
      "hino": 9003,
      "hmw": 9004,
      "hiding": 9005,
      "hetti": 9006,
      "higher": 9007,
      "iing": 9008,
      "iac": 9009,
      "ipl": 9010,
      "ius": 9011,
      "iers": 9012,
      "iant": 9013,
      "iPh": 9014,
      "iwish": 9015,
      "ique": 9016,
      "ivid": 9017,
      "iKey": 9018,
      "ihat": 9019,
      "iqht": 9020,
      "iPad": 9021,
      "iMovies": 9022,
      "ibility": 9023,
      "iencing": 9024,
      "ja": 9025,
      "jar": 9026,
      "jas": 9027,
      "jks": 9028,
      "jess": 9029,
      "jav": 9030,
      "kh": 9031,
      "km": 9032,
      "kt": 9033,
      "kar": 9034,
      "kas": 9035,
      "kom": 9036,
      "kra": 9037,
      "kim": 9038,
      "knot": 9039,
      "kie": 9040,
      "kite": 9041,
      "kward": 9042,
      "knightma": 9043,
      "kitchen": 9044,
      "las": 9045,
      "lal": 9046,
      "lver": 9047,
      "lau": 9048,
      "lish": 9049,
      "lower": 9050,
      "lending": 9051,
      "lounge": 9052,
      "mn": 9053,
      "mand": 9054,
      "mam": 9055,
      "mers": 9056,
      "mant": 9057,
      "matt": 9058,
      "mouse": 9059,
      "mated": 9060,
      "mute": 9061,
      "mush": 9062,
      "mitter": 9063,
      "mpath": 9064,
      "museum": 9065,
      "mione": 9066,
      "material": 9067,
      "mortg": 9068,
      "nw": 9069,
      "nx": 9070,
      "nz": 9071,
      "nch": 9072,
      "nur": 9073,
      "nab": 9074,
      "nity": 9075,
      "nxt": 9076,
      "napp": 9077,
      "ninq": 9078,
      "nude": 9079,
      "ninj": 9080,
      "nonsense": 9081,
      "od": 9082,
      "oor": 9083,
      "ove": 9084,
      "ody": 9085,
      "occ": 9086,
      "ovs": 9087,
      "odd": 9088,
      "oData": 9089,
      "ova": 9090,
      "oples": 9091,
      "ovan": 9092,
      "oposs": 9093,
      "ogue": 9094,
      "oGreens": 9095,
      "pow": 9096,
      "pti": 9097,
      "pse": 9098,
      "pig": 9099,
      "psh": 9100,
      "pup": 9101,
      "pab": 9102,
      "pum": 9103,
      "pine": 9104,
      "pays": 9105,
      "pix": 9106,
      "pies": 9107,
      "pts": 9108,
      "pian": 9109,
      "pace": 9110,
      "packs": 9111,
      "pier": 9112,
      "pions": 9113,
      "pages": 9114,
      "pending": 9115,
      "pimp": 9116,
      "pelin": 9117,
      "pvp": 9118,
      "pooch": 9119,
      "pumpkin": 9120,
      "qive": 9121,
      "qame": 9122,
      "rit": 9123,
      "rus": 9124,
      "rally": 9125,
      "riss": 9126,
      "rase": 9127,
      "rich": 9128,
      "rors": 9129,
      "rates": 9130,
      "roun": 9131,
      "rings": 9132,
      "rlly": 9133,
      "rants": 9134,
      "rona": 9135,
      "raring": 9136,
      "ratches": 9137,
      "rhino": 9138,
      "sw": 9139,
      "san": 9140,
      "sen": 9141,
      "sar": 9142,
      "slo": 9143,
      "sand": 9144,
      "sew": 9145,
      "sac": 9146,
      "sir": 9147,
      "sight": 9148,
      "sink": 9149,
      "sau": 9150,
      "sist": 9151,
      "swit": 9152,
      "sla": 9153,
      "soooooooo": 9154,
      "scept": 9155,
      "ski": 9156,
      "sched": 9157,
      "sfield": 9158,
      "spray": 9159,
      "sources": 9160,
      "sizz": 9161,
      "sofa": 9162,
      "sustain": 9163,
      "scores": 9164,
      "tre": 9165,
      "tat": 9166,
      "tto": 9167,
      "tut": 9168,
      "tone": 9169,
      "tree": 9170,
      "tum": 9171,
      "tact": 9172,
      "tort": 9173,
      "tread": 9174,
      "tens": 9175,
      "tint": 9176,
      "tics": 9177,
      "tcy": 9178,
      "ticks": 9179,
      "tmw": 9180,
      "tasty": 9181,
      "taco": 9182,
      "tasted": 9183,
      "tweeps": 9184,
      "ua": 9185,
      "uma": 9186,
      "uber": 9187,
      "uated": 9188,
      "ubs": 9189,
      "umed": 9190,
      "uumm": 9191,
      "von": 9192,
      "vide": 9193,
      "vive": 9194,
      "vations": 9195,
      "vacc": 9196,
      "voting": 9197,
      "wk": 9198,
      "wl": 9199,
      "ws": 9200,
      "wis": 9201,
      "wid": 9202,
      "wma": 9203,
      "wack": 9204,
      "wild": 9205,
      "xic": 9206,
      "xim": 9207,
      "yoooo": 9208,
      "yung": 9209,
      "yrs": 9210,
      "ypse": 9211,
      "zu": 9212,
      "zen": 9213,
      "zes": 9214,
      "zone": 9215,
      "znt": 9216,
      "zard": 9217,
      "zation": 9218,
      "zero": 9219,
      "zoy": 9220,
      "inf": 9221,
      "inent": 9222,
      "inity": 9223,
      "inting": 9224,
      "inary": 9225,
      "intim": 9226,
      "invent": 9227,
      "initi": 9228,
      "indoor": 9229,
      "infra": 9230,
      "intellig": 9231,
      "incorpor": 9232,
      "thun": 9233,
      "thigh": 9234,
      "thunder": 9235,
      "thug": 9236,
      "thali": 9237,
      "thouqh": 9238,
      "eric": 9239,
      "erce": 9240,
      "erator": 9241,
      "erva": 9242,
      "anz": 9243,
      "anor": 9244,
      "anal": 9245,
      "anch": 9246,
      "anaway": 9247,
      "analy": 9248,
      "onc": 9249,
      "oning": 9250,
      "oned": 9251,
      "onom": 9252,
      "onions": 9253,
      "onbury": 9254,
      "onzoy": 9255,
      "oul": 9256,
      "oudy": 9257,
      "reall": 9258,
      "rema": 9259,
      "rede": 9260,
      "reck": 9261,
      "retr": 9262,
      "respe": 9263,
      "remake": 9264,
      "resend": 9265,
      "reform": 9266,
      "rejo": 9267,
      "reets": 9268,
      "remix": 9269,
      "rections": 9270,
      "reaction": 9271,
      "republic": 9272,
      "rekit": 9273,
      "remot": 9274,
      "refle": 9275,
      "remain": 9276,
      "reserve": 9277,
      "reception": 9278,
      "recliner": 9279,
      "atl": 9280,
      "aters": 9281,
      "atist": 9282,
      "atile": 9283,
      "atlanta": 9284,
      "atoes": 9285,
      "attempt": 9286,
      "sti": 9287,
      "stad": 9288,
      "stall": 9289,
      "stim": 9290,
      "stea": 9291,
      "stack": 9292,
      "stage": 9293,
      "stair": 9294,
      "steven": 9295,
      "stics": 9296,
      "stars": 9297,
      "sticks": 9298,
      "struction": 9299,
      "inging": 9300,
      "oro": 9301,
      "ority": 9302,
      "orph": 9303,
      "orable": 9304,
      "orical": 9305,
      "ened": 9306,
      "encer": 9307,
      "enko": 9308,
      "enjoying": 9309,
      "tox": 9310,
      "tooo": 9311,
      "toast": 9312,
      "total": 9313,
      "toward": 9314,
      "topics": 9315,
      "tocol": 9316,
      "toyoung": 9317,
      "towel": 9318,
      "ita": 9319,
      "itis": 9320,
      "itle": 9321,
      "itation": 9322,
      "itive": 9323,
      "itself": 9324,
      "itative": 9325,
      "ittee": 9326,
      "itunes": 9327,
      "theast": 9328,
      "theshit": 9329,
      "theless": 9330,
      "llll": 9331,
      "llah": 9332,
      "iser": 9333,
      "isle": 9334,
      "isha": 9335,
      "isation": 9336,
      "island": 9337,
      "isoft": 9338,
      "isions": 9339,
      "isley": 9340,
      "arr": 9341,
      "aron": 9342,
      "army": 9343,
      "arna": 9344,
      "arily": 9345,
      "arates": 9346,
      "arship": 9347,
      "argue": 9348,
      "argum": 9349,
      "arrang": 9350,
      "esco": 9351,
      "esca": 9352,
      "metr": 9353,
      "mets": 9354,
      "meee": 9355,
      "mega": 9356,
      "meeee": 9357,
      "mestic": 9358,
      "mechan": 9359,
      "owna": 9360,
      "edo": 9361,
      "edon": 9362,
      "edit": 9363,
      "edtoyoung": 9364,
      "ett": 9365,
      "etion": 9366,
      "hea": 9367,
      "hest": 9368,
      "heal": 9369,
      "heater": 9370,
      "lov": 9371,
      "looo": 9372,
      "lotion": 9373,
      "loist": 9374,
      "loving": 9375,
      "lovers": 9376,
      "losing": 9377,
      "lovin": 9378,
      "asis": 9379,
      "asion": 9380,
      "asht": 9381,
      "asant": 9382,
      "asian": 9383,
      "associ": 9384,
      "asures": 9385,
      "asleep": 9386,
      "aspir": 9387,
      "aye": 9388,
      "aying": 9389,
      "ayne": 9390,
      "anders": 9391,
      "icop": 9392,
      "icould": 9393,
      "icts": 9394,
      "icles": 9395,
      "icious": 9396,
      "icism": 9397,
      "icestershire": 9398,
      "ala": 9399,
      "aler": 9400,
      "aland": 9401,
      "alie": 9402,
      "alive": 9403,
      "alian": 9404,
      "alds": 9405,
      "alike": 9406,
      "oom": 9407,
      "oos": 9408,
      "ooter": 9409,
      "oooh": 9410,
      "ootty": 9411,
      "ooped": 9412,
      "lest": 9413,
      "leans": 9414,
      "leopard": 9415,
      "lefto": 9416,
      "...^^": 9417,
      "ofit": 9418,
      "cha": 9419,
      "chi": 9420,
      "chin": 9421,
      "chow": 9422,
      "choo": 9423,
      "chart": 9424,
      "chain": 9425,
      "chwood": 9426,
      "chase": 9427,
      "chos": 9428,
      "chip": 9429,
      "chiropractor": 9430,
      "chinese": 9431,
      "chances": 9432,
      "ades": 9433,
      "adap": 9434,
      "advis": 9435,
      "rome": 9436,
      "rovers": 9437,
      "rocks": 9438,
      "robot": 9439,
      "tist": 9440,
      "tives": 9441,
      "tiled": 9442,
      "tipped": 9443,
      "force": 9444,
      "forum": 9445,
      "forreal": 9446,
      "forgive": 9447,
      "forced": 9448,
      "ido": 9449,
      "idel": 9450,
      "idance": 9451,
      "identi": 9452,
      "bec": 9453,
      "beats": 9454,
      "becuz": 9455,
      "began": 9456,
      "belly": 9457,
      "beef": 9458,
      "below": 9459,
      "hab": 9460,
      "hav": 9461,
      "hail": 9462,
      "hagen": 9463,
      "havior": 9464,
      "ewing": 9465,
      "acon": 9466,
      "acing": 9467,
      "acare": 9468,
      "acity": 9469,
      "accur": 9470,
      "acious": 9471,
      "acier": 9472,
      "accord": 9473,
      "acquisition": 9474,
      "seh": 9475,
      "seas": 9476,
      "sequ": 9477,
      "sells": 9478,
      "separ": 9479,
      "lime": 9480,
      "liment": 9481,
      "lived": 9482,
      "lift": 9483,
      "livin": 9484,
      "lization": 9485,
      "und": 9486,
      "unite": 9487,
      "unning": 9488,
      "uncle": 9489,
      "uncool": 9490,
      "unities": 9491,
      "unization": 9492,
      "unfortun": 9493,
      "undry": 9494,
      "amon": 9495,
      "amor": 9496,
      "amen": 9497,
      "amour": 9498,
      "among": 9499,
      "amsee": 9500,
      "amuse": 9501,
      "igerator": 9502,
      "keen": 9503,
      "kegs": 9504,
      "alling": 9505,
      "allies": 9506,
      "allets": 9507,
      "sore": 9508,
      "soak": 9509,
      "socal": 9510,
      "weak": 9511,
      "weiler": 9512,
      "websites": 9513,
      "vering": 9514,
      "verdict": 9515,
      "ils": 9516,
      "iled": 9517,
      "ilers": 9518,
      "ilands": 9519,
      "whore": 9520,
      "whaddy": 9521,
      "Theme": 9522,
      "TheWorld": 9523,
      "uta": 9524,
      "utal": 9525,
      "utical": 9526,
      "urer": 9527,
      "uray": 9528,
      "urant": 9529,
      "urge": 9530,
      "urist": 9531,
      "urself": 9532,
      "urbing": 9533,
      "omy": 9534,
      "omaterials": 9535,
      "thatget": 9536,
      "myth": 9537,
      "ndrome": 9538,
      "enters": 9539,
      "wimax": 9540,
      "wizards": 9541,
      "magn": 9542,
      "maker": 9543,
      "iona": 9544,
      "shin": 9545,
      "shat": 9546,
      "shits": 9547,
      "shred": 9548,
      "shift": 9549,
      "output": 9550,
      "outbreak": 9551,
      "olk": 9552,
      "oly": 9553,
      "olina": 9554,
      "olmfa": 9555,
      "aree": 9556,
      "eless": 9557,
      "elchair": 9558,
      "pler": 9559,
      "pled": 9560,
      "rail": 9561,
      "rapr": 9562,
      "rafting": 9563,
      "oodlook": 9564,
      "upe": 9565,
      "upset": 9566,
      "upgrade": 9567,
      "updated": 9568,
      "uparna": 9569,
      "onex": 9570,
      "irer": 9571,
      "irational": 9572,
      "rie": 9573,
      "rih": 9574,
      "riots": 9575,
      "ripper": 9576,
      "ribution": 9577,
      "aby": 9578,
      "abor": 9579,
      "abay": 9580,
      "abse": 9581,
      "abol": 9582,
      "abound": 9583,
      "abused": 9584,
      "abled": 9585,
      "abetes": 9586,
      "abilities": 9587,
      "above": 9588,
      "usa": 9589,
      "mov": 9590,
      "mole": 9591,
      "motion": 9592,
      "mode": 9593,
      "mothers": 9594,
      "nee": 9595,
      "neys": 9596,
      "neigh": 9597,
      "neuro": 9598,
      "neapolis": 9599,
      "estar": 9600,
      "estest": 9601,
      "agrees": 9602,
      "agreed": 9603,
      "aghetti": 9604,
      "agoodlook": 9605,
      "doc": 9606,
      "dose": 9607,
      "dope": 9608,
      "doctors": 9609,
      "dohmy": 9610,
      "hov": 9611,
      "pez": 9612,
      "peare": 9613,
      "peck": 9614,
      "pect": 9615,
      "peating": 9616,
      "pective": 9617,
      "pepper": 9618,
      "peeps": 9619,
      "peoples": 9620,
      "astro": 9621,
      "impin": 9622,
      "implying": 9623,
      "tember": 9624,
      "tears": 9625,
      "tebell": 9626,
      "poke": 9627,
      "pope": 9628,
      "polls": 9629,
      "poised": 9630,
      "poison": 9631,
      "poache": 9632,
      "daya": 9633,
      "ksville": 9634,
      "Thunder": 9635,
      "Third": 9636,
      "ceed": 9637,
      "cease": 9638,
      "cells": 9639,
      "logic": 9640,
      "washer": 9641,
      "wassup": 9642,
      "romise": 9643,
      "romantic": 9644,
      "ille": 9645,
      "illian": 9646,
      "no1": 9647,
      "nothin": 9648,
      "novations": 9649,
      "nostics": 9650,
      "eather": 9651,
      "antis": 9652,
      "antity": 9653,
      "antages": 9654,
      "ifier": 9655,
      "nots": 9656,
      "nott": 9657,
      "notagoodlook": 9658,
      "timedia": 9659,
      "enda": 9660,
      "endof": 9661,
      "endim": 9662,
      "endgame": 9663,
      "endures": 9664,
      "essay": 9665,
      "essments": 9666,
      "artment": 9667,
      "goer": 9668,
      "godohmy": 9669,
      "comThe": 9670,
      "combo": 9671,
      "commission": 9672,
      "compress": 9673,
      "cominq": 9674,
      "dee": 9675,
      "dex": 9676,
      "dear": 9677,
      "demo": 9678,
      "decre": 9679,
      "defin": 9680,
      "device": 9681,
      "deals": 9682,
      "devices": 9683,
      "delights": 9684,
      "degre": 9685,
      "devil": 9686,
      "default": 9687,
      "opy": 9688,
      "opho": 9689,
      "optim": 9690,
      "opening": 9691,
      "ummm": 9692,
      "umbs": 9693,
      "umont": 9694,
      "umns": 9695,
      "tah": 9696,
      "taic": 9697,
      "taupe": 9698,
      "inds": 9699,
      "indicated": 9700,
      "worn": 9701,
      "apton": 9702,
      "apples": 9703,
      "approve": 9704,
      "cken": 9705,
      "cket": 9706,
      "uling": 9707,
      "ultra": 9708,
      "ulite": 9709,
      "ulations": 9710,
      "fection": 9711,
      "featur": 9712,
      "fections": 9713,
      "Chat": 9714,
      "Chick": 9715,
      "Chip": 9716,
      "Church": 9717,
      "Chimp": 9718,
      "Chronic": 9719,
      "Cheryl": 9720,
      "conqu": 9721,
      "congr": 9722,
      "convers": 9723,
      "confl": 9724,
      "consid": 9725,
      "concept": 9726,
      "conversion": 9727,
[...]
